{
  "</s>": 0,
  "<unk>": 1,
  ",": 2,
  ".": 3,
  "\u2581the": 4,
  "\u2581\"": 5,
  "\u2581of": 6,
  "\u2581to": 7,
  "\u2581and": 8,
  "\u2581a": 9,
  "\u2581-": 10,
  "s": 11,
  "\u2581in": 12,
  "?": 13,
  ":": 14,
  "\u2581": 15,
  "\u2581that": 16,
  "\u2581is": 17,
  "\u2581ukuba": 18,
  "\u2581I": 19,
  "\u2581be": 20,
  "\u2581i": 21,
  "'": 22,
  "\u2581for": 23,
  "-": 24,
  "\u2581e": 25,
  "\u2581u": 26,
  ";": 27,
  "\u2581with": 28,
  "\u2581you": 29,
  "\u2581not": 30,
  "\u2581'": 31,
  "\u2581ku": 32,
  "\u2581The": 33,
  "\u2581was": 34,
  "\u2581his": 35,
  "\u2581on": 36,
  "\u2581we": 37,
  "\u2581are": 38,
  "\u2581as": 39,
  "\u2581God": 40,
  "\u2581it": 41,
  "\u2581will": 42,
  "\u2581have": 43,
  "\u2581he": 44,
  "\u2581(": 45,
  "\u2581Jehovah": 46,
  "\u2581by": 47,
  "yo": 48,
  "\u2581ba": 49,
  ")": 50,
  "\u2581from": 51,
  "\u2581or": 52,
  "\u2581they": 53,
  "\u2581their": 54,
  "\u2581this": 55,
  "\u2581okanye": 56,
  "\u2581si": 57,
  "!": 58,
  "\u2581na": 59,
  "\u2581o": 60,
  "\u2581ezi": 61,
  "\u2581who": 62,
  "\u2581U": 63,
  "\u2581all": 64,
  "\u2581[": 65,
  "\u2581your": 66,
  "\u2581uku": 67,
  "\u2581no": 68,
  "ni": 69,
  "\u2581can": 70,
  "\u2581ke": 71,
  "a": 72,
  "\u2581yaye": 73,
  "\u2581at": 74,
  "\u2581kwi": 75,
  "\u2581ngoku": 76,
  "\u2581zi": 77,
  "\u2581A": 78,
  "\u2581them": 79,
  "\u2581xa": 80,
  "\u2581were": 81,
  "\u2581_": 82,
  "\u2581one": 83,
  "\u2581ye": 84,
  "\u2581an": 85,
  "\u2581aba": 86,
  "\u2581him": 87,
  "\u2581Bible": 88,
  "ing": 89,
  "\u2581ne": 90,
  "\u2581Jesus": 91,
  "\u2581our": 92,
  "\u2581had": 93,
  "\u2581wa": 94,
  "\u2581into": 95,
  "\u2581do": 96,
  "\u25811": 97,
  "\u2581abantu": 98,
  "\u2581has": 99,
  "\u2581le": 100,
  "\u2581ukuze": 101,
  "\u2581%": 102,
  "\u2581us": 103,
  "\u2581my": 104,
  "\u2581when": 105,
  "\u2581In": 106,
  "\u2581what": 107,
  "\u2581oku": 108,
  "\u2581people": 109,
  "\u2581so": 110,
  "\u2581esi": 111,
  "\u2581uYehova": 112,
  "\u2581but": 113,
  "t": 114,
  "]": 115,
  "\u2581What": 116,
  "\u2581kuba": 117,
  "\u2581eli": 118,
  "\u2581may": 119,
  "\u2581E": 120,
  "\u2581which": 121,
  "\u2581me": 122,
  "\u2581about": 123,
  "\u2581li": 124,
  "\u2581time": 125,
  "\u2581would": 126,
  "\u2581uThixo": 127,
  "e": 128,
  "\u2581ngayo": 129,
  "\u2581out": 130,
  "\u2581kwe": 131,
  "\u2581also": 132,
  "...": 133,
  "\u2581up": 134,
  "I": 135,
  "\u2581did": 136,
  "\u2581her": 137,
  "\u2581kodwa": 138,
  "\u2581more": 139,
  "\u2581lo": 140,
  "_": 141,
  "d": 142,
  "i": 143,
  "\u2581He": 144,
  "\u2581nge": 145,
  "\u2581It": 146,
  "\u2581ndi": 147,
  "\u2581said": 148,
  "nga": 149,
  "\u2581there": 150,
  "n": 151,
  "\u2581izinto": 152,
  "\u2581life": 153,
  "\u2581nje": 154,
  "le": 155,
  "\u2581been": 156,
  "\u2581This": 157,
  "\u2581ya": 158,
  "\u2581waye": 159,
  "\u2581nto": 160,
  "\u2581those": 161,
  "\u2581Uku": 162,
  "\u2581should": 163,
  "\u2581How": 164,
  "\u2581if": 165,
  "na": 166,
  "\u2581some": 167,
  "\u2581And": 168,
  "\u2581lu": 169,
  "\u2581/": 170,
  "\u2581indlela": 171,
  "ed": 172,
  "\u2581shall": 173,
  "\"": 174,
  "\u2581man": 175,
  "\u2581other": 176,
  "\u2581such": 177,
  "\u2581Ngaba": 178,
  "\u2581olu": 179,
  "/": 180,
  "\u2581babe": 181,
  "m": 182,
  "\u2581oko": 183,
  "\u2581many": 184,
  "\u2581kunye": 185,
  "\u2581ze": 186,
  "la": 187,
  "\u2581uya": 188,
  "\u2581njani": 189,
  "b": 190,
  "\u2581yoku": 191,
  "\u2581But": 192,
  "\u2581kaYehova": 193,
  "\u2581than": 194,
  "\u2581uYesu": 195,
  "\u2581ngenxa": 196,
  "\u2581Ukuba": 197,
  "\u2581these": 198,
  "\u2581bakhe": 199,
  "\u2581Xa": 200,
  "\u2581noku": 201,
  "\u2581wathi": 202,
  "li": 203,
  "\u2581even": 204,
  "\u2581Kodwa": 205,
  "\u2581For": 206,
  "\u2581They": 207,
  "\u2581yakhe": 208,
  "\u2581day": 209,
  "\u2581good": 210,
  "\u2581kwa": 211,
  "E": 212,
  "\u2581way": 213,
  "\u2581things": 214,
  "\u2581la": 215,
  "\u2581how": 216,
  "\u2581lwe": 217,
  "\u2581does": 218,
  "\u2581Ku": 219,
  "\u2581We": 220,
  "\u2581zonke": 221,
  "\u25812": 222,
  "\u2581se": 223,
  "\u2581children": 224,
  "\u2581world": 225,
  "\u2581If": 226,
  "\u2581When": 227,
  "\u2581za": 228,
  "\u2581help": 229,
  "wa": 230,
  "\u2581make": 231,
  "\u2581work": 232,
  "si": 233,
  "\u2581name": 234,
  "\u2581Witnesses": 235,
  "\u2581could": 236,
  "\u2581she": 237,
  "\u2581made": 238,
  "\u2581ngo": 239,
  "lo": 240,
  "ly": 241,
  "\u2581over": 242,
  "\u2581years": 243,
  "\u2581because": 244,
  "\u2581only": 245,
  "o": 246,
  "the": 247,
  "\u2581its": 248,
  "ne": 249,
  "\u2581wakhe": 250,
  "\u2581must": 251,
  "\u2581first": 252,
  "\u2581page": 253,
  "\u2581earth": 254,
  "ku": 255,
  "\u2581then": 256,
  "u": 257,
  "\u2581umntu": 258,
  "\u2581You": 259,
  "\u2581eku": 260,
  "\u2581yo": 261,
  "\u2581yi": 262,
  "S": 263,
  "\u2581ibe": 264,
  "\u2581before": 265,
  "\u2581yokuba": 266,
  "\u2581apho": 267,
  "\u2581ii": 268,
  "\u2581Paul": 269,
  "\u2581abo": 270,
  "\u2581kuye": 271,
  "\u2581love": 272,
  "\u2581says": 273,
  "\u2581like": 274,
  "ka": 275,
  "\u2581sa": 276,
  "ba": 277,
  "\u2581any": 278,
  "\u2581ngokuba": 279,
  "\u2581need": 280,
  "\u2581kakhulu": 281,
  "\u2581being": 282,
  "\u2581Ngoko": 283,
  "zi": 284,
  "\u2581Christ": 285,
  "\u2581come": 286,
  "\u2581two": 287,
  "\u2581emva": 288,
  "A": 289,
  "\u2581loku": 290,
  "\u2581O": 291,
  "\u2581ngoko": 292,
  "\u2581ko": 293,
  "\u2581ka": 294,
  "\u2581Christian": 295,
  "\u2581bonke": 296,
  "\u2581C": 297,
  "\u2581As": 298,
  "\u2581phakathi": 299,
  "\u2581new": 300,
  "\u2581see": 301,
  "\u2581after": 302,
  "\u2581loo": 303,
  "y": 304,
  "\u2581men": 305,
  "M": 306,
  "\u2581Le": 307,
  "\u2581yayi": 308,
  "\u2581Why": 309,
  "U": 310,
  "\u2581know": 311,
  "\u2581take": 312,
  "\u2581&": 313,
  "\u2581aye": 314,
  "se": 315,
  "\u2581ngendlela": 316,
  "\u2581nda": 317,
  "\u2581Noko": 318,
  "\u2581kuphela": 319,
  "\u2581Oku": 320,
  "\u2581wam": 321,
  "\u2581koko": 322,
  "ma": 323,
  "\u2581through": 324,
  "\u2581others": 325,
  "C": 326,
  "\u2581baya": 327,
  "\u2581family": 328,
  "lu": 329,
  "\u2581Israel": 330,
  "\u2581size": 331,
  "\u2581wo": 332,
  "\u2581Kingdom": 333,
  "\u2581used": 334,
  "\u2581well": 335,
  "\u2581kokuba": 336,
  "\u2581use": 337,
  "\u2581iBhayibhile": 338,
  "\u2581*": 339,
  "\u2581am": 340,
  "\u2581Christians": 341,
  "\u2581kakuhle": 342,
  "\u2581So": 343,
  "\u2581against": 344,
  "\u2581now": 345,
  "\u2581kaThixo": 346,
  "\u2581Ba": 347,
  "\u2581Wa": 348,
  "\u2581example": 349,
  "\u2581koku": 350,
  "\u2581kwaye": 351,
  "\u2581own": 352,
  "\u2581ixesha": 353,
  "\u2581spirit": 354,
  "\u2581yonke": 355,
  "\u25813:": 356,
  "\u2581ni": 357,
  "\u2581No": 358,
  "er": 359,
  "\u258115": 360,
  "\u2581faith": 361,
  "\u2581just": 362,
  "no": 363,
  "\u2581woku": 364,
  "\u2581Ngoku": 365,
  "\u2581kuku": 366,
  "\u2581ngu": 367,
  "\u2581heart": 368,
  "\u2581very": 369,
  "za": 370,
  "\u2581another": 371,
  "\u2581kufuneka": 372,
  "\u2581came": 373,
  "\u2581abanye": 374,
  "\u2581ubomi": 375,
  "\u2581down": 376,
  "\u2581kuyo": 377,
  "\u2581ngaba": 378,
  "\u25812:": 379,
  "\u2581Yahweh": 380,
  "\u2581give": 381,
  "\u2581njenge": 382,
  "\u2581To": 383,
  "sa": 384,
  "l": 385,
  "\u2581true": 386,
  "\u2581bu": 387,
  "\u2581'%": 388,
  "\u2581words": 389,
  "\u2581go": 390,
  "\u2581uthi": 391,
  "yi": 392,
  "\u2581Si": 393,
  "\u2581where": 394,
  "\u2581become": 395,
  "\u2581great": 396,
  "\u2581much": 397,
  "\u2581obu": 398,
  "\u2581ship": 399,
  "\u2581zoku": 400,
  "\u2581most": 401,
  "\u2581death": 402,
  "\u2581say": 403,
  "\u25814:": 404,
  "\u2581each": 405,
  "\u2581abaninzi": 406,
  "\u2581abe": 407,
  "\u2581njengoko": 408,
  "ya": 409,
  "\u2581found": 410,
  "lwa": 411,
  "\u25813": 412,
  "\u2581ezininzi": 413,
  "re": 414,
  "\u25811:": 415,
  "\u2581B": 416,
  "\u2581ndlela": 417,
  "\u2581set": 418,
  "\u2581house": 419,
  "ko": 420,
  "th": 421,
  "\u2581kukho": 422,
  "\u2581kwakhe": 423,
  "\u2581yakho": 424,
  "\u2581same": 425,
  "\u2581year": 426,
  "\u2581nabo": 427,
  "c": 428,
  "\u2581congregation": 429,
  "\u2581part": 430,
  "\u2581upon": 431,
  "\u25818": 432,
  "\u2581zo": 433,
  "\u2581umsebenzi": 434,
  "\u2581under": 435,
  "\u2581might": 436,
  "\u2581ukuya": 437,
  "\u2581Emva": 438,
  "\u2581abantwana": 439,
  "\u2581parents": 440,
  "\u2581put": 441,
  "\u2581igama": 442,
  "\u2581every": 443,
  "\u2581Ngenxa": 444,
  "\u2581end": 445,
  "\u2581Yintoni": 446,
  "\u2581spiritual": 447,
  "\u2581place": 448,
  "we": 449,
  "\u2581times": 450,
  "\u2581uPawulos": 451,
  "\u2581wakho": 452,
  "\u25815:": 453,
  "\u2581iya": 454,
  "\u2581hand": 455,
  "ke": 456,
  "\u2581ones": 457,
  "\u2581unto": 458,
  "\u2581person": 459,
  "\u2581Umfanekiso": 460,
  "\u2581kukuba": 461,
  "\u2581right": 462,
  "\u2581find": 463,
  "\u2581son": 464,
  "\u2581away": 465,
  "\u2581kwabo": 466,
  "\u2581called": 467,
  "\u2581lwa": 468,
  "\u2581esithi": 469,
  "\u2581ithi": 470,
  "\u2581David": 471,
  "\u2581ngaphandle": 472,
  "\u2581One": 473,
  "\u2581Do": 474,
  "\u2581kwaku": 475,
  "\u2581ngakumbi": 476,
  "\u2581Ndi": 477,
  "\u2581kuya": 478,
  "\u2581Picture": 479,
  "\u2581ayi": 480,
  "\u2581king": 481,
  "\u2581phantsi": 482,
  "\u2581days": 483,
  "\u2581water": 484,
  "thi": 485,
  "\u2581Kwi": 486,
  "\u2581Then": 487,
  "\u2581book": 488,
  "\u2581long": 489,
  "\u2581New": 490,
  "\u2581That": 491,
  "\u2581between": 492,
  "r": 493,
  "\u2581soku": 494,
  "\u2581There": 495,
  "\u2581lakhe": 496,
  "\u25816:": 497,
  "\u2581waza": 498,
  "\u25811,": 499,
  "\u2581among": 500,
  "\u2581John": 501,
  "\u2581aku": 502,
  "\u2581kuYehova": 503,
  "\u2581young": 504,
  "\u2581waba": 505,
  "\u2581omnye": 506,
  "\u2581bam": 507,
  "\u2581kubo": 508,
  "loo": 509,
  "N": 510,
  "\u2581get": 511,
  "\u2581Kutheni": 512,
  "\u2581nokuba": 513,
  ".\"": 514,
  "\u2581himself": 515,
  "in": 516,
  "\u2581UYehova": 517,
  "\u2581okwiphepha": 518,
  "\u2581aze": 519,
  "\u2581kum": 520,
  "\u2581keep": 521,
  "\u2581However": 522,
  "\u2581gqitha": 523,
  "\u2581land": 524,
  "\u2581Lo": 525,
  "\u2581let": 526,
  "\u2581today": 527,
  "\u2581babo": 528,
  "g": 529,
  "\u2581home": 530,
  "\u2581zabo": 531,
  "\u2581lonke": 532,
  "\u2581zakhe": 533,
  "\u2581yam": 534,
  "\u2581truth": 535,
  "de": 536,
  "\u2581three": 537,
  "\u2581awaye": 538,
  "\u2581want": 539,
  "\u2581ababe": 540,
  "\u25815": 541,
  "\u2581means": 542,
  "\u2581phambi": 543,
  "\u2581\u25a1": 544,
  "B": 545,
  "\u2581word": 546,
  "be": 547,
  "\u2581S": 548,
  "\u2581kulo": 549,
  "\u25814": 550,
  "\u2581human": 551,
  "\u2581given": 552,
  "\u2581indawo": 553,
  "\u2581back": 554,
  "\u2581ndandi": 555,
  "\u2581ama": 556,
  "\u2581Be": 557,
  "soloko": 558,
  "\u2581eya": 559,
  "\u25817": 560,
  "\u2581too": 561,
  "\u2581ukwenza": 562,
  "al": 563,
  "p": 564,
  "\u2581yabo": 565,
  "\u2581naye": 566,
  "\u2581feel": 567,
  "\u2581study": 568,
  "\u2581Ngokomzekelo": 569,
  "ki": 570,
  "\u2581number": 571,
  "\u2581bakho": 572,
  "bu": 573,
  "\u2581often": 574,
  "\u2581Some": 575,
  "\u2581likaThixo": 576,
  "\u2581enye": 577,
  "\u2581eyayi": 578,
  "\u2581UYesu": 579,
  "\u2581njengo": 580,
  "\u25816": 581,
  "\u2581kuThixo": 582,
  "\u2581siya": 583,
  "\u2581wethu": 584,
  "\u2581zazi": 585,
  "\u2581At": 586,
  "\u2581Ezi": 587,
  "\u2581without": 588,
  "\u2581Ii": 589,
  "\u2581file": 590,
  "so": 591,
  "\u2581kwakhona": 592,
  "\u2581while": 593,
  "ze": 594,
  "\u2581ntoni": 595,
  "\u2581never": 596,
  "\u2581de": 597,
  "\u2581brothers": 598,
  "wu": 599,
  "\u2581show": 600,
  "\u2581though": 601,
  "\u2581kuthi": 602,
  "\u2581old": 603,
  "\u2581went": 604,
  "\u2581bo": 605,
  "\u2581off": 606,
  "\u2581emhlabeni": 607,
  "mi": 608,
  "\u2581father": 609,
  "\u2581amaKristu": 610,
  "lwe": 611,
  "\u2581during": 612,
  "\u2581kuzo": 613,
  "\u258110": 614,
  "\u258112": 615,
  "\u2581khona": 616,
  "\u2581baye": 617,
  "\u2581yethu": 618,
  "\u25819": 619,
  "H": 620,
  "\u2581awa": 621,
  "\u258120": 622,
  "\u2581Is": 623,
  "k": 624,
  "\u2581xesha": 625,
  "\u2581Aba": 626,
  "\u2581read": 627,
  "\u2581course": 628,
  "\u2581yoko": 629,
  "\u2581\"%": 630,
  "\u2581ethi": 631,
  "The": 632,
  "\u2581both": 633,
  "\u2581became": 634,
  "\u2581phezu": 635,
  "\u2581um": 636,
  "\u2581Word": 637,
  "\u2581still": 638,
  "\u2581ngaphambi": 639,
  "\u2581saying": 640,
  "\u2581All": 641,
  "\u2581view": 642,
  "\u2581why": 643,
  "\u258111": 644,
  "x": 645,
  "\u2581ekubeni": 646,
  "\u2581ziya": 647,
  "\u2581service": 648,
  "\u2581aka": 649,
  "\u2581important": 650,
  "O": 651,
  "\u2581power": 652,
  "\u2581She": 653,
  "\u2581themselves": 654,
  "\u2581wife": 655,
  "\u2581LORD": 656,
  "\u2581Peter": 657,
  "\u2581These": 658,
  "\u2581Lord": 659,
  "\u2581apostle": 660,
  "\u2581live": 661,
  "\u2581leyo": 662,
  "\u2581namhlanje": 663,
  "\u2581child": 664,
  "T": 665,
  "\u2581kwindawo": 666,
  "\u2581wrote": 667,
  "\u2581message": 668,
  "\u2581Abantu": 669,
  "\u2581After": 670,
  "\u2581city": 671,
  "\u2581By": 672,
  "\u2581sasi": 673,
  "\u2581again": 674,
  "R": 675,
  "\u2581uze": 676,
  "\u2581however": 677,
  "nye": 678,
  "\u2581On": 679,
  "\u2581Wathi": 680,
  "\u2581ngowe": 681,
  "\u2581whom": 682,
  "\u2581asi": 683,
  "\u2581took": 684,
  "\u2581kanye": 685,
  "\u2581Satan": 686,
  "\u2581Father": 687,
  "\u2581nee": 688,
  "\u2581peace": 689,
  "\u2581Zi": 690,
  "ye": 691,
  "\u2581Jerusalem": 692,
  "ndi": 693,
  "\u2581gave": 694,
  "\u2581yena": 695,
  "\u2581kube": 696,
  "\u2581learn": 697,
  "\u2581onke": 698,
  "\u2581told": 699,
  "\u2581naba": 700,
  "\u2581M": 701,
  "bo": 702,
  "\u2581together": 703,
  "\u2581azi": 704,
  "\u2581Kwakhona": 705,
  "\u2581kule": 706,
  "\u2581able": 707,
  "\u2581order": 708,
  "\u2581holy": 709,
  "K": 710,
  "\u2581States": 711,
  "\u2581left": 712,
  "\u2581done": 713,
  "\u2581ngokwenene": 714,
  "\u2581ezo": 715,
  "\u2581worship": 716,
  "\u2581later": 717,
  "me": 718,
  "\u2581s": 719,
  "\u2581konke": 720,
  "\u2581century": 721,
  "%": 722,
  "\u2581Kristu": 723,
  "\u2581amaNgqina": 724,
  "\u2581Nangona": 725,
  "\u2581N": 726,
  "\u2581owaye": 727,
  "kho": 728,
  "P": 729,
  "\u2581IBhayibhile": 730,
  "\u258118": 731,
  "hlala": 732,
  "\u2581enkulu": 733,
  "\u2581always": 734,
  "\u2581full": 735,
  "\u2581began": 736,
  "\u2581inqanawa": 737,
  "\u2581knowledge": 738,
  "es": 739,
  "\u2581With": 740,
  "\u2581zinto": 741,
  "\u2581high": 742,
  "\u2581until": 743,
  "\u2581baze": 744,
  "\u2581system": 745,
  "\u2581Li": 746,
  "\u2581bring": 747,
  "\u2581athi": 748,
  "\u2581living": 749,
  "\u2581bethu": 750,
  "\u2581cannot": 751,
  "\u2581ezinye": 752,
  "\u2581umoya": 753,
  "\u2581hope": 754,
  "\u2581ngalo": 755,
  "\u2581uye": 756,
  "\u2581having": 757,
  "\u2581mind": 758,
  "\u2581Nda": 759,
  "Y": 760,
  "\u2581ngexesha": 761,
  "\u2581D": 762,
  "\u25812.": 763,
  "D": 764,
  "\u25814.": 765,
  "\u2581news": 766,
  "\u2581ngokupheleleyo": 767,
  "\u2581owa": 768,
  "\u2581Ke": 769,
  "ra": 770,
  "\u2581Nge": 771,
  "da": 772,
  "\u2581isi": 773,
  "ri": 774,
  "\u2581blood": 775,
  "\u2581side": 776,
  "\u2581wonke": 777,
  "\u2581nor": 778,
  "\u2581kwaba": 779,
  "\u2581Eli": 780,
  "\u2581Matthew": 781,
  "\u2581aya": 782,
  "\u2581possible": 783,
  "\u2581sokuba": 784,
  "zo": 785,
  "neminyaka": 786,
  "\u2581brought": 787,
  "\u2581unyana": 788,
  "\u2581Moses": 789,
  "bangela": 790,
  "\u2581ezilungileyo": 791,
  "\u2581following": 792,
  "\u2581mother": 793,
  "\u2581My": 794,
  "\u2581kuwo": 795,
  "\u2581ube": 796,
  "\u2581fact": 797,
  "\u2581serve": 798,
  "\u2581faithful": 799,
  "\u2581little": 800,
  "\u2581result": 801,
  "\u2581Ukuze": 802,
  "\u2581woman": 803,
  "2": 804,
  "\u2581amazwi": 805,
  "\u2581kwii": 806,
  "\u2581doing": 807,
  "\u2581last": 808,
  "\u2581zethu": 809,
  "\u2581Yaye": 810,
  "te": 811,
  "\u2581amandla": 812,
  "va": 813,
  "funa": 814,
  "\u2581lokuba": 815,
  "\u2581lowo": 816,
  "\u2581La": 817,
  "kha": 818,
  "\u258125": 819,
  "\u2581line": 820,
  "nge": 821,
  "\u2581disciples": 822,
  "\u2581His": 823,
  "\u2581therefore": 824,
  "\u2581Igama": 825,
  "\u2581phambili": 826,
  "ti": 827,
  "\u2581information": 828,
  "\u258112:": 829,
  "\u2581Yes": 830,
  "\u2581yokuqala": 831,
  "\u2581servants": 832,
  "di": 833,
  "\u2581making": 834,
  "\u2581njengokuba": 835,
  "\u2581abazali": 836,
  "ngo": 837,
  "\u2581Psalm": 838,
  "thetha": 839,
  "to": 840,
  "\u2581nations": 841,
  "tha": 842,
  "\u2581Many": 843,
  "\u2581sele": 844,
  "\u2581ways": 845,
  "\u2581wawu": 846,
  "\u2581known": 847,
  "\u2581Could": 848,
  "ng": 849,
  "mo": 850,
  "\u2581sent": 851,
  "or": 852,
  "\u2581ngokuthi": 853,
  "\u2581asked": 854,
  "\u2581ngabantu": 855,
  "\u2581From": 856,
  "\u2581different": 857,
  "\u2581ubudala": 858,
  "\u2581few": 859,
  "\u2581nezi": 860,
  "\u2581engama": 861,
  "\u2581toward": 862,
  "qinisekileyo": 863,
  "\u2581small": 864,
  "\u2581ships": 865,
  "\u2581eza": 866,
  "\u2581Waye": 867,
  "\u2581law": 868,
  "\u258113": 869,
  "\u2581Kuba": 870,
  "\u2581eyes": 871,
  "\u2581sin": 872,
  "G": 873,
  "\u2581bathi": 874,
  "\u2581light": 875,
  "nikela": 876,
  "\u2581elo": 877,
  "\u2581reason": 878,
  "\u2581preaching": 879,
  "....": 880,
  "\u258116": 881,
  "\u2581Ye": 882,
  "\u2581nga": 883,
  "\u2581thou": 884,
  "\u2581Yet": 885,
  "\u2581think": 886,
  "\u2581ministry": 887,
  "\u2581Son": 888,
  "\u2581Even": 889,
  "F": 890,
  "pha": 891,
  "\u2581Your": 892,
  "\u2581cause": 893,
  "\u258117": 894,
  "\u2581women": 895,
  "fumana": 896,
  "\u2581akhe": 897,
  "\u2581amaninzi": 898,
  "\u258110:": 899,
  "\u2581around": 900,
  "\u2581better": 901,
  "\u258110.": 902,
  "\u2581sea": 903,
  "\u2581since": 904,
  "\u2581really": 905,
  "\u2581mna": 906,
  "\u2581ngoxa": 907,
  "\u2581future": 908,
  "\u2581heaven": 909,
  "\u2581World": 910,
  "ro": 911,
  "\u2581sibe": 912,
  "\u2581Kwa": 913,
  "\u2581An": 914,
  "\u2581something": 915,
  "\u2581akukho": 916,
  "\u2581Scriptures": 917,
  "\u2581King": 918,
  "\u2581mntu": 919,
  "bonakala": 920,
  "\u2581care": 921,
  "\u2581sakhe": 922,
  "ve": 923,
  "\u2581body": 924,
  "\u258111:": 925,
  "\u2581ndiya": 926,
  "\u2581face": 927,
  "\u2581hlobo": 928,
  "\u2581war": 929,
  "\u2581sons": 930,
  "\u2581food": 931,
  "\u2581problems": 932,
  "\u2581yet": 933,
  "\u258114": 934,
  "\u2581ezingama": 935,
  "\u2581brother": 936,
  "\u2581fear": 937,
  "\u2581kuni": 938,
  "\u2581nama": 939,
  "\u258130": 940,
  "\u2581taken": 941,
  "\u2581look": 942,
  "\u2581saw": 943,
  "\u2581paper": 944,
  "\u2581baba": 945,
  "\u2581religious": 946,
  "\u2581open": 947,
  "\u25aa": 948,
  "\u2581purpose": 949,
  "\u2581wabo": 950,
  "\u2581according": 951,
  "\u2581izi": 952,
  "\u2581support": 953,
  "\u2581Now": 954,
  "\u2581Thus": 955,
  "\u2581nabantu": 956,
  "\u2581next": 957,
  "\u25815.": 958,
  "\u2581ezimbini": 959,
  "\u25817:": 960,
  "\u2581free": 961,
  "\u2581Akukho": 962,
  "\u2581far": 963,
  "\u2581R": 964,
  "\u2581bukaThixo": 965,
  "bi": 966,
  "f": 967,
  "\u25818.": 968,
  "bonisa": 969,
  "\u2581mankind": 970,
  "\u25813.": 971,
  "an": 972,
  "kwa": 973,
  "ta": 974,
  "\u2581turn": 975,
  "\u258114.": 976,
  "\u2581Let": 977,
  "\u2581elithi": 978,
  "\u2581nguThixo": 979,
  "\u2581label": 980,
  "\u2581four": 981,
  "\u2581ever": 982,
  "\u2581abafundi": 983,
  "\u2581loving": 984,
  "\u2581Ewe": 985,
  "ngena": 986,
  "\u25817.": 987,
  "\u2581thy": 988,
  "\u2581UThixo": 989,
  "\u2581kuwe": 990,
  "\u2581Ya": 991,
  "\u2581husband": 992,
  "khe": 993,
  "\u2581ngama": 994,
  "\u2581image": 995,
  "\u2581ufuna": 996,
  "\u2581Abraham": 997,
  "\u2581imali": 998,
  "\u2581ehlabathini": 999,
  "\u258113:": 1000,
  "\u2581Our": 1001,
  "\u2581large": 1002,
  "\u2581yeBhayibhile": 1003,
  "\u2581umhlaba": 1004,
  "mele": 1005,
  "\u2581uza": 1006,
  "\u2581Sekunjalo": 1007,
  "1": 1008,
  "\u2581baza": 1009,
  "\u258111.": 1010,
  "\u2581iindlela": 1011,
  "bonakalisa": 1012,
  "\u2581best": 1013,
  "\u2581ngazo": 1014,
  "\u2581Njengoko": 1015,
  "\u2581inyaniso": 1016,
  "\u2581Uya": 1017,
  "\u2581ngaphezu": 1018,
  "ga": 1019,
  "\u2581humans": 1020,
  "\u258112.": 1021,
  "on": 1022,
  "\u2581marriage": 1023,
  "\u2581kwakho": 1024,
  "\u2581members": 1025,
  "L": 1026,
  "\u2581thus": 1027,
  "\u2581T": 1028,
  "\u2581close": 1029,
  "\u2581Isaiah": 1030,
  "\u2581folder": 1031,
  "\u2581speak": 1032,
  "3": 1033,
  "\u2581certain": 1034,
  "\u2581heard": 1035,
  "\u2581someone": 1036,
  "\u2581wicked": 1037,
  "\u2581joy": 1038,
  "\u2581lives": 1039,
  "\u25819.": 1040,
  "\u2581lakho": 1041,
  "\u2581case": 1042,
  "\u2581consider": 1043,
  "\u2581indoda": 1044,
  "\u2581amadoda": 1045,
  "\u2581Can": 1046,
  "\u2581personal": 1047,
  "\u2581000": 1048,
  "\u2581dead": 1049,
  "\u2581Ekubeni": 1050,
  "\u2581apha": 1051,
  "\u2581point": 1052,
  "\u2581present": 1053,
  "\u2581lwakhe": 1054,
  "ers": 1055,
  "\u2581uDavide": 1056,
  "en": 1057,
  "\u2581ngaloo": 1058,
  "\u2581ezazi": 1059,
  "\u2581yaba": 1060,
  "\u2581needed": 1061,
  "go": 1062,
  "\u2581K": 1063,
  "\u2581value": 1064,
  "\u25816.": 1065,
  "ca": 1066,
  "\u2581ngamnye": 1067,
  "W": 1068,
  "\u2581wena": 1069,
  "\u2581m": 1070,
  "\u258113.": 1071,
  "\u2581text": 1072,
  "\u2581article": 1073,
  "\u2581change": 1074,
  "\u2581whole": 1075,
  "\u2581naku": 1076,
  "z": 1077,
  "\u2581yourself": 1078,
  "\u2581hard": 1079,
  "\u2581lali": 1080,
  "\u2581matter": 1081,
  "\u2581wisdom": 1082,
  "\u2581elders": 1083,
  "\u258115,": 1084,
  "\u2581early": 1085,
  "\u2581along": 1086,
  "setyenziswa": 1087,
  "\u258124": 1088,
  "\u2581going": 1089,
  "\u2581yintoni": 1090,
  "\u2581kwezi": 1091,
  "\u2581unga": 1092,
  "\u2581believe": 1093,
  "\u2581experience": 1094,
  "\u2581endi": 1095,
  "\u2581eye": 1096,
  "\u2581yayo": 1097,
  "\u258117.": 1098,
  "\u2581sure": 1099,
  "\u2581Esi": 1100,
  "\u258116.": 1101,
  "\u2581Society": 1102,
  "\u2581enoba": 1103,
  "\u2581control": 1104,
  "\u2581yase": 1105,
  "\u2581thing": 1106,
  "\u2581akazange": 1107,
  "\u2581nabanye": 1108,
  "\u2581questions": 1109,
  "\u2581Sa": 1110,
  "\u2581money": 1111,
  "\u2581Indlela": 1112,
  "\u2581ukholo": 1113,
  "vakalelwa": 1114,
  "\u2581righteous": 1115,
  "\u2581ndawo": 1116,
  "\u2581whether": 1117,
  "\u2581prayer": 1118,
  "\u2581ukumkani": 1119,
  "\u258115.": 1120,
  "\u2581kwam": 1121,
  "\u2581omkhulu": 1122,
  "\u2581fellow": 1123,
  "\u2581key": 1124,
  "\u2581Ne": 1125,
  "\u2581ukuthi": 1126,
  "\u2581ali": 1127,
  "\u2581Ngalo": 1128,
  "\u2581ngokwe": 1129,
  "vi": 1130,
  "\u2581Abanye": 1131,
  "\u2581ngathi": 1132,
  "),": 1133,
  "\u2581account": 1134,
  "\u2581umthetho": 1135,
  "hla": 1136,
  "\u2581njalo": 1137,
  "\u2581here": 1138,
  "\u2581friends": 1139,
  "\u2581thought": 1140,
  "\u2581continue": 1141,
  "\u2581wase": 1142,
  "\u2581Omnye": 1143,
  "\u2581kunjalo": 1144,
  "\u2581kuquka": 1145,
  "\u2581age": 1146,
  "\u2581Who": 1147,
  "\u2581Bonisa": 1148,
  "\u2581ask": 1149,
  "kwazi": 1150,
  "\u2581school": 1151,
  "\u2581zakho": 1152,
  "\u2581language": 1153,
  "\u2581seen": 1154,
  "\u2581bad": 1155,
  "\u2581Proverbs": 1156,
  "\u2581provide": 1157,
  "ha": 1158,
  "\u2581fire": 1159,
  "\u2581Because": 1160,
  "\u2581umzekelo": 1161,
  "\u2581self": 1162,
  "\u2581wenza": 1163,
  "\u2581night": 1164,
  "\u2581kamva": 1165,
  "\u2581iminyaka": 1166,
  "\u2581forth": 1167,
  "\u2581counsel": 1168,
  "ce": 1169,
  "\u2581type": 1170,
  "\u2581Enye": 1171,
  "\u2581answer": 1172,
  "\u2581elinye": 1173,
  "\u2581received": 1174,
  "\u25818,": 1175,
  "\u2581ukutya": 1176,
  "\u2581uthando": 1177,
  "\u2581INdumiso": 1178,
  "\u2581thee": 1179,
  "\u2581fine": 1180,
  "\u2581tell": 1181,
  "\u2581Not": 1182,
  "suka": 1183,
  "\u2581Show": 1184,
  "phi": 1185,
  "\u2581amanzi": 1186,
  "\u2581uncedo": 1187,
  "\u2581Are": 1188,
  "\u2581meetings": 1189,
  "\u2581ilizwi": 1190,
  "\u2581already": 1191,
  "qala": 1192,
  "United": 1193,
  "\u2581kweli": 1194,
  "\u2581learned": 1195,
  "\u2581don": 1196,
  "\u2581list": 1197,
  "\u2581Jews": 1198,
  "\u2581anga": 1199,
  "\u2581head": 1200,
  "he": 1201,
  "\u2581Ngo": 1202,
  "\u2581wambi": 1203,
  "\u2581form": 1204,
  "\u2581second": 1205,
  "\u2581Yi": 1206,
  "\u2581selected": 1207,
  "dla": 1208,
  "\u2581within": 1209,
  "\u2581near": 1210,
  "\u2581ukusuka": 1211,
  "w": 1212,
  "\u2581felt": 1213,
  "\u2581understand": 1214,
  "\u2581using": 1215,
  "\u2581above": 1216,
  "\u2581kaYesu": 1217,
  "\u25813,": 1218,
  "\u2581Genesis": 1219,
  "\u2581ubungqina": 1220,
  "\u2581religion": 1221,
  "\u2581strong": 1222,
  "\u2581ngokukhawuleza": 1223,
  "\u2581ekwiphepha": 1224,
  "\u2581special": 1225,
  "\u25818:": 1226,
  "\u2581ubani": 1227,
  "\u2581ebomini": 1228,
  "\u2581ngabo": 1229,
  "\u2581Of": 1230,
  "\u2581likaYehova": 1231,
  "\u2581Mateyu": 1232,
  "\u2581soul": 1233,
  "\u2581position": 1234,
  "thabatha": 1235,
  "fa": 1236,
  "\u2581neither": 1237,
  "fu": 1238,
  "\u2581especially": 1239,
  "\u2581G": 1240,
  "\u2581kunokuba": 1241,
  "\u2581happy": 1242,
  ",\"": 1243,
  "\u2581boat": 1244,
  "\u2581window": 1245,
  "hamba": 1246,
  "co": 1247,
  "st": 1248,
  "\u2581Name": 1249,
  "\u2581move": 1250,
  "\u2581Adam": 1251,
  "\u2581eBhayibhileni": 1252,
  "\u2581rhoqo": 1253,
  "\u2581Olu": 1254,
  "\u2581isizathu": 1255,
  "\u2581nothing": 1256,
  "\u2581group": 1257,
  "qalisa": 1258,
  "\u2581\u2022": 1259,
  "\u2581receive": 1260,
  "\u2022": 1261,
  "\u2581situation": 1262,
  "\u2581wise": 1263,
  "\u2581kwenzeka": 1264,
  "\u2581helped": 1265,
  "qhubeka": 1266,
  "\u2581mean": 1267,
  "\u2581soon": 1268,
  "\u2581nezinye": 1269,
  "\u2581kubantu": 1270,
  "\u258115:": 1271,
  "nda": 1272,
  "\u2581kind": 1273,
  "\u2581Lu": 1274,
  "\u2581iye": 1275,
  "\u2581teaching": 1276,
  "\u2581amabini": 1277,
  "\u2581bakaThixo": 1278,
  "\u2581lead": 1279,
  "\u258140": 1280,
  "\u2581iindaba": 1281,
  "h": 1282,
  "\u2581kwayo": 1283,
  "\u2581P": 1284,
  "ci": 1285,
  "\u2581available": 1286,
  "\u2581ethile": 1287,
  "\u2581York": 1288,
  "\u2581bona": 1289,
  "\u2581wabhala": 1290,
  "\u2581F": 1291,
  "\u258119": 1292,
  "\u2581mazwi": 1293,
  "5": 1294,
  "\u25819:": 1295,
  "\u2581including": 1296,
  "\u2581nase": 1297,
  "\u2581Na": 1298,
  "\u2581color": 1299,
  "\u2581anointed": 1300,
  "\u2581umntwana": 1301,
  "\u2581Corinthians": 1302,
  "\u2581try": 1303,
  "\u2581ancient": 1304,
  "\u2581kwama": 1305,
  "\u2581share": 1306,
  "\u2581health": 1307,
  "\u2581ngamandla": 1308,
  "\u2581difficult": 1309,
  "ho": 1310,
  "\u2581avoid": 1311,
  "\u2581call": 1312,
  "\u2581nangona": 1313,
  "\u2581ngaphambili": 1314,
  "\u2581seefayili": 1315,
  "vela": 1316,
  "\u2581hands": 1317,
  "\u2581relationship": 1318,
  "\u2581ukufunda": 1319,
  "\u2581died": 1320,
  "\u2581works": 1321,
  "\u2581desire": 1322,
  "\u2581intliziyo": 1323,
  "\u2581lwethu": 1324,
  "\u2581respect": 1325,
  "\u2581Greek": 1326,
  "qu": 1327,
  "\u2581awu": 1328,
  "us": 1329,
  "\u2581Oko": 1330,
  "\u2581mhlawumbi": 1331,
  "\u2581X": 1332,
  "\u2581abazalwana": 1333,
  "\u2581makes": 1334,
  "\u2581ngezinto": 1335,
  "\u2581yee": 1336,
  "\u2581kwabantu": 1337,
  "\u2581eso": 1338,
  "\u2581heavenly": 1339,
  "\u258124:": 1340,
  "\u2581Judah": 1341,
  "\u2581kude": 1342,
  "4": 1343,
  "\u2581nayo": 1344,
  "\u2581area": 1345,
  "\u2581incwadi": 1346,
  "\u2581Yenza": 1347,
  "bizwa": 1348,
  "\u2581problem": 1349,
  "phe": 1350,
  "\u258122": 1351,
  "X": 1352,
  "\u2581nzima": 1353,
  "\u2581strength": 1354,
  "\u2581wrong": 1355,
  "\u2581righteousness": 1356,
  "\u2581Khetha": 1357,
  "\u2581Ndandi": 1358,
  "\u2581needs": 1359,
  "ngu": 1360,
  "ic": 1361,
  "\u2581boku": 1362,
  "\u2581inkqubo": 1363,
  "\u2581Revelation": 1364,
  "Z": 1365,
  "sebenza": 1366,
  "\u2581talk": 1367,
  "ness": 1368,
  ").": 1369,
  "\u2581five": 1370,
  "phinda": 1371,
  "\u2581enjoy": 1372,
  "\u2581Timothy": 1373,
  "\u2581Africa": 1374,
  "\u2581Since": 1375,
  "\u2581ukwazi": 1376,
  "\u2581amaSirayeli": 1377,
  "\u2581unoku": 1378,
  "\u2581baptized": 1379,
  "\u2581iingxaki": 1380,
  "\u2581action": 1381,
  "\u2581ingqalelo": 1382,
  "\u2581United": 1383,
  "\u2581giving": 1384,
  "\u258118.": 1385,
  "\u2581taking": 1386,
  "\u2581Inkcazelo": 1387,
  "\u2581kingdom": 1388,
  "\u2581eat": 1389,
  "\u2581kwethu": 1390,
  "\u2581local": 1391,
  "\u2581ebe": 1392,
  "\u2581reading": 1393,
  "\u2581field": 1394,
  "\u258114:": 1395,
  "\u2581comes": 1396,
  "\u2581kuthetha": 1397,
  "\u2581feet": 1398,
  "\u2581Watchtower": 1399,
  "\u258121": 1400,
  "\u2581uxolo": 1401,
  "\u2581temple": 1402,
  "xa": 1403,
  "\u2581likely": 1404,
  "\u2581attention": 1405,
  "\u2581provided": 1406,
  "kwenza": 1407,
  "\u2581ubu": 1408,
  "\u2581follow": 1409,
  "\u2581real": 1410,
  "\u2581nation": 1411,
  "\u258133": 1412,
  "\u2581country": 1413,
  "\u2581base": 1414,
  "\u2581kwiminyaka": 1415,
  "\u2581Israelites": 1416,
  "\u2581Luke": 1417,
  "\u2581THE": 1418,
  "\u2581kakubi": 1419,
  "\u2581evil": 1420,
  "\u2581Therefore": 1421,
  "\u2581sifanele": 1422,
  "\u2581Tower": 1423,
  "\u258117:": 1424,
  "\u2581imihla": 1425,
  "\u258126": 1426,
  "\u2581Ayikwazi": 1427,
  "\u2581further": 1428,
  "\u258150": 1429,
  "\u2581clear": 1430,
  "\u2581ukususela": 1431,
  "\u2581conduct": 1432,
  "funda": 1433,
  "\u2581allow": 1434,
  "\u2581Although": 1435,
  "\u2581ngonaphakade": 1436,
  "\u2581return": 1437,
  "\u2581translation": 1438,
  "\u2581zabantu": 1439,
  "\u2581ngokomoya": 1440,
  "\u2581oonyana": 1441,
  "\u2581similar": 1442,
  "\u2581sense": 1443,
  "\u2581Whether": 1444,
  "\u2581question": 1445,
  "\u25819,": 1446,
  "\u2581moved": 1447,
  "V": 1448,
  "\u2581written": 1449,
  "\u2581hear": 1450,
  "\u2581once": 1451,
  "tsha": 1452,
  "\u2581lula": 1453,
  "\u2581states": 1454,
  "\u2581icala": 1455,
  "\u2581Egypt": 1456,
  "\u2581L": 1457,
  "\u2581ifayili": 1458,
  "\u2581kept": 1459,
  "\u2581stand": 1460,
  "\u2581IMizekeliso": 1461,
  "\u2581malunga": 1462,
  "\u2581prophet": 1463,
  "\u2581un": 1464,
  "\u2581zeBhayibhile": 1465,
  "\u2581Hayi": 1466,
  "\u25815,": 1467,
  "\u2581command": 1468,
  "\u2581noko": 1469,
  "\u2581ebudeni": 1470,
  "tya": 1471,
  "zisa": 1472,
  "\u2581Those": 1473,
  "fanele": 1474,
  "\u25816,": 1475,
  "\u2581inga": 1476,
  "sele": 1477,
  "\u2581liya": 1478,
  "\u2581kwenza": 1479,
  "\u2581trust": 1480,
  "\u2581Error": 1481,
  "\u2581feelings": 1482,
  "\u2581knew": 1483,
  "\u2581current": 1484,
  "\u2581nawe": 1485,
  "ge": 1486,
  "beka": 1487,
  "\u258127": 1488,
  "\u2581kangangokuba": 1489,
  "\u2581ihlabathi": 1490,
  "\u2581yona": 1491,
  "\u258120.": 1492,
  "\u2581die": 1493,
  "\u2581nganye": 1494,
  "\u2581ukufumana": 1495,
  "\u2581ngaphakathi": 1496,
  "\u2581seBhayibhile": 1497,
  "\u2581Job": 1498,
  "\u2581kubakho": 1499,
  "\u2581ukusa": 1500,
  "man": 1501,
  "\u2581While": 1502,
  "\u2581usually": 1503,
  "\u2581coming": 1504,
  "\u2581public": 1505,
  "\u2581effect": 1506,
  "................": 1507,
  "\u2581ziye": 1508,
  "phila": 1509,
  "\u2581imini": 1510,
  "\u2581imisebenzi": 1511,
  "\u2581wayo": 1512,
  "\u2581othi": 1513,
  "\u2581inkcazelo": 1514,
  "\u2581J": 1515,
  "\u2581Yohane": 1516,
  "\u2581alu": 1517,
  "\u2581endaweni": 1518,
  "\u2581glory": 1519,
  "\u2581less": 1520,
  "\u2581bazi": 1521,
  "\u2581James": 1522,
  "\u2581ngawo": 1523,
  "\u2581ourselves": 1524,
  "\u2581false": 1525,
  "\u2581hold": 1526,
  "\u258131": 1527,
  "mba": 1528,
  "\u2581Their": 1529,
  "\u2581mthetho": 1530,
  "\u2581Ngokuba": 1531,
  "\u2581unqulo": 1532,
  "cinga": 1533,
  "\u2581ngokuphathelele": 1534,
  "\u2581yabantu": 1535,
  "khulu": 1536,
  "\u2581kunoku": 1537,
  "\u2581hlabathi": 1538,
  "phuma": 1539,
  "\u2581Impazamo": 1540,
  "Name": 1541,
  "mashumi": 1542,
  "\u2581Such": 1543,
  "\u2581start": 1544,
  "\u2581kuza": 1545,
  "\u2581Nokuba": 1546,
  "tho": 1547,
  "\u2581nazo": 1548,
  "\u2581zibe": 1549,
  "sela": 1550,
  "\u2581longer": 1551,
  "\u2581msebenzi": 1552,
  "\u2581umfanekiso": 1553,
  "khuthaza": 1554,
  "\u2581oyingcwele": 1555,
  "\u2581leave": 1556,
  "do": 1557,
  "\u25814,": 1558,
  "\u2581material": 1559,
  "zama": 1560,
  "\u2581H": 1561,
  "\u2581nalo": 1562,
  "\u2581Acts": 1563,
  "\u2581ezithile": 1564,
  "\u2581luya": 1565,
  "\u2581kindness": 1566,
  "\u2581necessary": 1567,
  "\u2581ulwazi": 1568,
  "\u2581whose": 1569,
  "\u2581Creator": 1570,
  "\u2581W": 1571,
  "\u2581imeko": 1572,
  "\u2581greater": 1573,
  "Lizwi": 1574,
  "\u2581Does": 1575,
  "\u2581ukuthanda": 1576,
  "\u2581simply": 1577,
  "\u2581common": 1578,
  "\u2581pray": 1579,
  "\u2581based": 1580,
  "\u2581Solomon": 1581,
  "\u258119.": 1582,
  "\u2581ngaye": 1583,
  "\u2581gives": 1584,
  "\u2581eyona": 1585,
  "cela": 1586,
  "\u2581taught": 1587,
  "bha": 1588,
  "\u2581involved": 1589,
  "\u2581countries": 1590,
  "tshintsha": 1591,
  "\u2581nakwi": 1592,
  "bona": 1593,
  "\u2581required": 1594,
  "\u2581bakaYehova": 1595,
  "um": 1596,
  "\u2581iindawo": 1597,
  "\u2581lam": 1598,
  "\u2581kwexesha": 1599,
  "\u258121:": 1600,
  "\u2581started": 1601,
  "\u2581voice": 1602,
  "\u2581Today": 1603,
  "\u2581Consider": 1604,
  "\u2581history": 1605,
  "\u2581past": 1606,
  "\u2581zii": 1607,
  "\u2581ma": 1608,
  "\u2581principles": 1609,
  "fi": 1610,
  "\u2581serving": 1611,
  "\u2581yama": 1612,
  "\u2581sacrifice": 1613,
  "\u2581enough": 1614,
  "\u2581kwindlela": 1615,
  "City": 1616,
  "\u2581benefit": 1617,
  "\u258132": 1618,
  "\u2581Indawo": 1619,
  "\u2581Kwaku": 1620,
  "\u2581wanted": 1621,
  "\u2581error": 1622,
  "\u2581enga": 1623,
  "\u2581kungekhona": 1624,
  "\u2581Law": 1625,
  "\u2581act": 1626,
  "\u2581spoke": 1627,
  "\u2581rule": 1628,
  "\u2581certainly": 1629,
  "ll": 1630,
  "\u2581ilizwe": 1631,
  "able": 1632,
  "\u2581flesh": 1633,
  "v": 1634,
  "fika": 1635,
  "\u2581suffering": 1636,
  "\u2581waya": 1637,
  "You": 1638,
  "is": 1639,
  "ur": 1640,
  ":%": 1641,
  "\u2581seven": 1642,
  "\u2581'?": 1643,
  "\u2581Romans": 1644,
  "khula": 1645,
  "pa": 1646,
  "\u2581amaxesha": 1647,
  "\u2581matters": 1648,
  "\u2581divine": 1649,
  "\u25812,": 1650,
  "\u2581teach": 1651,
  "\u2581wenqanawa": 1652,
  "\u2581lost": 1653,
  "\u2581efanayo": 1654,
  "\u2581simele": 1655,
  "\u2581forever": 1656,
  "\u2581bantu": 1657,
  "\u2581rather": 1658,
  "\u2581six": 1659,
  "Si": 1660,
  "\u25810": 1661,
  "\u2581rest": 1662,
  "nd": 1663,
  "fe": 1664,
  "\u2581People": 1665,
  "\u2581aza": 1666,
  "\u2581Isi": 1667,
  "\u2581ithuba": 1668,
  "kholelwa": 1669,
  "\u2581kwakunye": 1670,
  "\u2581nam": 1671,
  "\u2581shows": 1672,
  "ncwadi": 1673,
  "\u2581entsha": 1674,
  "\u2581zawo": 1675,
  "\u2581percent": 1676,
  "\u2581endlwini": 1677,
  "\u2581umfazi": 1678,
  "\u2581ingxelo": 1679,
  "\u2581ezulwini": 1680,
  "\u2581sheep": 1681,
  "nde": 1682,
  "\u258129": 1683,
  "\u2581ten": 1684,
  "\u2581alone": 1685,
  "\u2581remain": 1686,
  "kwe": 1687,
  "\u2581itself": 1688,
  "\u2581iphepha": 1689,
  "\u2581months": 1690,
  "\u2581siye": 1691,
  "\u2581singa": 1692,
  "\u2581built": 1693,
  "\u2581kwesi": 1694,
  "nya": 1695,
  "\u2581intsapho": 1696,
  "\u2581ngee": 1697,
  "\u2581interest": 1698,
  "kwi": 1699,
  "\u2581Um": 1700,
  "\u2581zam": 1701,
  "\u2581pain": 1702,
  "\u258118:": 1703,
  "\u2581physical": 1704,
  "\u2581esa": 1705,
  "\u2581period": 1706,
  "\u2581eyi": 1707,
  "\u2581ize": 1708,
  "\u2581nkqubo": 1709,
  "tsho": 1710,
  "\u258121.": 1711,
  "\u2581UPawulos": 1712,
  "\u2581Se": 1713,
  "\u2581nawo": 1714,
  "\u258128": 1715,
  "\u2581authority": 1716,
  "\u2581Ndiya": 1717,
  "\u2581class": 1718,
  "\u2581andi": 1719,
  "\u2581anyone": 1720,
  "\u2581held": 1721,
  "bhe": 1722,
  "\u2581During": 1723,
  "\u2581ezili": 1724,
  "\u2581lwabo": 1725,
  "\u2581nange": 1726,
  "\u2581state": 1727,
  "\u2581Funda": 1728,
  "\u2581w": 1729,
  "\u258114,": 1730,
  "\u2581Line": 1731,
  "\u2581Re": 1732,
  "\u2581America": 1733,
  "\u2581elali": 1734,
  "\u2581evidence": 1735,
  "\u2581emininzi": 1736,
  "\u2581nangoku": 1737,
  "\u2581umdla": 1738,
  "\u2581sengqondo": 1739,
  "\u2581ezine": 1740,
  "\u2581uPetros": 1741,
  "chaza": 1742,
  "\u2581iintlanga": 1743,
  "\u2581meeting": 1744,
  "\u258116:": 1745,
  "lula": 1746,
  "\u2581perfect": 1747,
  "\u2581nina": 1748,
  "\u2581thinking": 1749,
  "it": 1750,
  "\u2581amakhulu": 1751,
  "\u2581direction": 1752,
  "\u2581kwawo": 1753,
  "optional": 1754,
  "\u2581anything": 1755,
  "\u2581Select": 1756,
  "\u2581changes": 1757,
  "\u2581According": 1758,
  "\u2581Ayikwazanga": 1759,
  "\u2581II": 1760,
  "\u258137": 1761,
  "\u2581Yo": 1762,
  "\u2581Ziziphi": 1763,
  "\u2581married": 1764,
  "il": 1765,
  "\u2581fully": 1766,
  "\u2581n": 1767,
  "\u2581Izinto": 1768,
  "\u2581lived": 1769,
  "landela": 1770,
  "tshi": 1771,
  "\u2581kuqala": 1772,
  "\u2581Inani": 1773,
  "\u2581attitude": 1774,
  "Ma": 1775,
  "\u2581yalo": 1776,
  "ation": 1777,
  "\u2581Ma": 1778,
  "\u2581ncwadi": 1779,
  "\u2581Ngowe": 1780,
  "\u2581Would": 1781,
  "\u2581everlasting": 1782,
  "lungiselela": 1783,
  "\u2581kuma": 1784,
  "\u2581save": 1785,
  "ar": 1786,
  "\u2581uSathana": 1787,
  "\u258123": 1788,
  "\u2581least": 1789,
  "\u2581turned": 1790,
  "\u2581understanding": 1791,
  "\u2581half": 1792,
  "\u2581uba": 1793,
  "\u2581Ama": 1794,
  "\u2581happened": 1795,
  "Ndi": 1796,
  "\u2581priest": 1797,
  "ziva": 1798,
  "\u2581Abo": 1799,
  "\u2581y": 1800,
  "\u2581Umbhalo": 1801,
  "\u2581Please": 1802,
  "\u2581kumsebenzi": 1803,
  "wo": 1804,
  "el": 1805,
  "\u2581judgment": 1806,
  "\u2581Eneneni": 1807,
  "\u2581million": 1808,
  "\u2581covenant": 1809,
  "zele": 1810,
  "\u2581kunga": 1811,
  "gu": 1812,
  "qhuba": 1813,
  "shi": 1814,
  "\u2581month": 1815,
  "\u00b7": 1816,
  "\u2581abadala": 1817,
  "\u2581address": 1818,
  "\u2581government": 1819,
  "\u2581re": 1820,
  "thanda": 1821,
  "\u2581uhlobo": 1822,
  "\u2581born": 1823,
  "\u2581single": 1824,
  "\u2581kuko": 1825,
  "\u2581South": 1826,
  "\u2581kuze": 1827,
  "\u2581othile": 1828,
  "ankile": 1829,
  "\u2581ngelo": 1830,
  "\u2581working": 1831,
  "\u2581kaloku": 1832,
  "\u2581poor": 1833,
  "\u2581loved": 1834,
  "\u2581Hebrew": 1835,
  "\u2581wind": 1836,
  "\u2581Credit": 1837,
  "\u2581Will": 1838,
  "\u2581source": 1839,
  "kuba": 1840,
  "\u2581Babylon": 1841,
  "\u2581elide": 1842,
  "\u2581yezinto": 1843,
  "\u2581either": 1844,
  "nikwa": 1845,
  "\u2581pass": 1846,
  "\u2581uMoses": 1847,
  "lungisa": 1848,
  "\u2581happiness": 1849,
  "\u2581nendlela": 1850,
  "\u2581kwixesha": 1851,
  "\u2581various": 1852,
  "\u2581Into": 1853,
  "ngekho": 1854,
  "phu": 1855,
  "\u2581servant": 1856,
  "she": 1857,
  "\u2581carry": 1858,
  "\u2581offering": 1859,
  "uku": 1860,
  "\u258111,": 1861,
  "\u2581iimpawu": 1862,
  "\u258119:": 1863,
  "\u2581Ngaphezu": 1864,
  "\u2581mentioned": 1865,
  "\u2581ngale": 1866,
  "nyanisekileyo": 1867,
  "\u258120:": 1868,
  "\u2581akho": 1869,
  "\u2581iNkosi": 1870,
  "\u2581ukuthetha": 1871,
  "action": 1872,
  "\u2581iimeko": 1873,
  "fikelela": 1874,
  "\u2581families": 1875,
  "bhi": 1876,
  "\u2581display": 1877,
  "\u2581yawo": 1878,
  "\u2581cut": 1879,
  "\u2581nathi": 1880,
  "\u2581ekhulwini": 1881,
  "\u2581police": 1882,
  "\u2581deep": 1883,
  "\u2581files": 1884,
  "\u2581nabantwana": 1885,
  "mali": 1886,
  "\u25817,": 1887,
  "\u2581Loo": 1888,
  "thu": 1889,
  "\u2581baka": 1890,
  "Ku": 1891,
  "\u2581amalungu": 1892,
  "\u2581moya": 1893,
  "eth": 1894,
  "\u2581ago": 1895,
  "\u2581Enyanisweni": 1896,
  "\u2581deck": 1897,
  "ion": 1898,
  "\u2581indlu": 1899,
  "\u2581kwiindawo": 1900,
  "\u2581Kunoko": 1901,
  "\u2581ezintathu": 1902,
  "\u2581sakho": 1903,
  "\u2581Imifanekiso": 1904,
  "\u2581Daniel": 1905,
  "\u2581heavens": 1906,
  "\u2581kubekho": 1907,
  "\u2581Life": 1908,
  "\u2581walk": 1909,
  "\u2581Namhlanje": 1910,
  "\u2581ukufa": 1911,
  "\u2581resurrection": 1912,
  "hi": 1913,
  "\u2581lethu": 1914,
  "\u2581Y": 1915,
  "\u2581obungunaphakade": 1916,
  "\u2581Canno": 1917,
  "\u2581perhaps": 1918,
  "\u2581Saul": 1919,
  "\u2581emehlweni": 1920,
  "\u2581rope": 1921,
  "\u2581lase": 1922,
  "\u2581Wo": 1923,
  "\u2581vessel": 1924,
  "\u258112,": 1925,
  "\u2581isandla": 1926,
  "\u2581Joseph": 1927,
  "\u2581hearts": 1928,
  "\u2581nguYehova": 1929,
  "\u2581offer": 1930,
  "\u2581Pictures": 1931,
  "\u2581followers": 1932,
  "\u2581led": 1933,
  "khumbula": 1934,
  "\u2581daughter": 1935,
  "\u2581named": 1936,
  "\u2581please": 1937,
  "\u2581Most": 1938,
  "\u2581short": 1939,
  "phantse": 1940,
  "\u2581ezinkulu": 1941,
  "fana": 1942,
  "nu": 1943,
  "\u2581ekugqibeleni": 1944,
  "\u2581esasi": 1945,
  "\u2581ene": 1946,
  "\u258110,": 1947,
  "\u2581Mhlawumbi": 1948,
  "\u2581abakhonzi": 1949,
  "\u2581mihla": 1950,
  "lawula": 1951,
  "gi": 1952,
  "\u2581enze": 1953,
  "\u2581seek": 1954,
  "\u2581apostles": 1955,
  "\u2581organization": 1956,
  "\u2581Ko": 1957,
  "\u2581places": 1958,
  "\u2581search": 1959,
  "\u2581amazwe": 1960,
  "mela": 1961,
  "\u2581olo": 1962,
  "\u258116,": 1963,
  "\u2581serious": 1964,
  "\u2581efanelekileyo": 1965,
  "\u2581ngelithi": 1966,
  "lele": 1967,
  "\u2581friend": 1968,
  "\u2581kuka": 1969,
  "\u2581Jewish": 1970,
  "\u2581air": 1971,
  "\u2581wokushumayela": 1972,
  "\u2581eYerusalem": 1973,
  "zahlukahlukeneyo": 1974,
  "\u2581modern": 1975,
  "\u2581Yiyiphi": 1976,
  "\u2581events": 1977,
  "\u2581showed": 1978,
  "\u2581truly": 1979,
  "hlobo": 1980,
  "pe": 1981,
  "\u2581(%": 1982,
  "\u2581nesi": 1983,
  "\u2581wama": 1984,
  "\u2581ukusebenzisa": 1985,
  "\u2581individuals": 1986,
  "bangelwa": 1987,
  "\u2581Catholic": 1988,
  "\u2581church": 1989,
  "\u2581igazi": 1990,
  "\u2581meko": 1991,
  "po": 1992,
  "shiya": 1993,
  "\u2581server": 1994,
  "\u2581See": 1995,
  "\u2581answered": 1996,
  "\u2581kwazo": 1997,
  "\u2581Watch": 1998,
  "\u2581sister": 1999,
  "\u2581Yehova": 2000,
  "\u2581accept": 2001,
  "\u2581hundred": 2002,
  "\u2581meaning": 2003,
  "\u2581noThixo": 2004,
  "\u2581Korinte": 2005,
  "\u2581isifundo": 2006,
  "khokelela": 2007,
  "hle": 2008,
  "vuma": 2009,
  "\u2581kumazwe": 2010,
  "ty": 2011,
  "\u2581data": 2012,
  "dibana": 2013,
  "\u2581contact": 2014,
  "\u2581mouth": 2015,
  "\u2581uyi": 2016,
  "\u2581create": 2017,
  "\u2581several": 2018,
  "\u2581ngoYehova": 2019,
  "\u2581circumstances": 2020,
  "\u2581speaking": 2021,
  "kazi": 2022,
  "\u2581Umpostile": 2023,
  "\u2581draw": 2024,
  "quka": 2025,
  "\u2581iza": 2026,
  "\u2581Color": 2027,
  "\u2581main": 2028,
  "\u2581kwee": 2029,
  "\u2581elitsha": 2030,
  "\u2581Ni": 2031,
  "\u2581amanye": 2032,
  "\u2581ibi": 2033,
  "\u2581priests": 2034,
  "\u2581em": 2035,
  "\u2581considered": 2036,
  "\u2581older": 2037,
  "\u258160": 2038,
  "\u2581shown": 2039,
  "\u2581Or": 2040,
  "\u2581anger": 2041,
  "\u2581Ezinye": 2042,
  "\u2581umpostile": 2043,
  "\u2581Ngoxa": 2044,
  "\u2581changed": 2045,
  "\u2581remember": 2046,
  "\u2581write": 2047,
  "mbi": 2048,
  "\u2581Bu": 2049,
  "\u2581got": 2050,
  "\u2581Mark": 2051,
  "\u2581kukaThixo": 2052,
  "bhala": 2053,
  "\u2581usenoku": 2054,
  "\u2581Rather": 2055,
  "\u2581cities": 2056,
  "\u2581English": 2057,
  "\u2581yokugqibela": 2058,
  "nceda": 2059,
  "khonza": 2060,
  "\u258170": 2061,
  "\u2581continued": 2062,
  "\u2581report": 2063,
  "\u2581kutheni": 2064,
  "\u2581parts": 2065,
  "\u2581Use": 2066,
  "malunga": 2067,
  "\u2581endandi": 2068,
  "\u2581True": 2069,
  "\u2581allowed": 2070,
  "\u2581prophecy": 2071,
  "\u2581Ibhokisi": 2072,
  "\u2581force": 2073,
  "\u02b9": 2074,
  "du": 2075,
  "\u2581mini": 2076,
  "\u2581Hebrews": 2077,
  "\u2581forward": 2078,
  "\u2581fall": 2079,
  "\u2581ndiye": 2080,
  "\u2581injongo": 2081,
  "\u2581natural": 2082,
  "\u2581thousand": 2083,
  "\u2581speed": 2084,
  "\u2581ibandla": 2085,
  "\u2581increase": 2086,
  "\u2581%1": 2087,
  "\u2581conditions": 2088,
  "\u2581lwakho": 2089,
  "ment": 2090,
  "\u2581100": 2091,
  "\u2581More": 2092,
  "\u2581violence": 2093,
  "\u2581Bo": 2094,
  "\u258122:": 2095,
  "\u2581imithetho": 2096,
  "noku": 2097,
  "\u2581ngaphantsi": 2098,
  "\u2581gain": 2099,
  "\u2581program": 2100,
  "\u2581messages": 2101,
  "\u2581sinoku": 2102,
  "\u2581meet": 2103,
  "\u258123.": 2104,
  "vu": 2105,
  "est": 2106,
  "\u2581qualities": 2107,
  "\u2581Uthi": 2108,
  "\u2581ekhaya": 2109,
  "\u2581thina": 2110,
  "cu": 2111,
  "\u2581esinye": 2112,
  "\u2581Box": 2113,
  "\u2581witness": 2114,
  "\u2581Roman": 2115,
  "\u2581ukwenzela": 2116,
  "\u2581hath": 2117,
  "\u2581phezulu": 2118,
  "\u2581ISityhilelo": 2119,
  "\u2581clean": 2120,
  "tye": 2121,
  "phela": 2122,
  "\u2581sonke": 2123,
  "\u2581described": 2124,
  "\u2581caused": 2125,
  "\u2581ase": 2126,
  "\u2581Yayi": 2127,
  "\u2581general": 2128,
  "bulala": 2129,
  "fundisa": 2130,
  "\u2581ngako": 2131,
  "\u2581sisters": 2132,
  "phendula": 2133,
  "\u2581carried": 2134,
  "\u2581listen": 2135,
  "\u2581nezinto": 2136,
  "\u2581Incwadi": 2137,
  "\u2581ufanele": 2138,
  "ry": 2139,
  "\u2581seem": 2140,
  "khethekileyo": 2141,
  "\u2581powerful": 2142,
  "lweni": 2143,
  "\u2581ithemba": 2144,
  "\u2581served": 2145,
  "\u2581returned": 2146,
  "leni": 2147,
  "\u2581everything": 2148,
  "\u2581complete": 2149,
  "\u2581lukaThixo": 2150,
  "\u2581inani": 2151,
  "\u2581abangama": 2152,
  "\u2581Jeremiah": 2153,
  "\u2581pages": 2154,
  "\u2581sins": 2155,
  "\u2581throughout": 2156,
  "\u2581tree": 2157,
  "\u2581kwabanye": 2158,
  "\u2581kwenye": 2159,
  "\u2581promise": 2160,
  "\u2581build": 2161,
  "\u2581honor": 2162,
  "\u2581kuhlala": 2163,
  "\u2581kwizinto": 2164,
  "\u2581Aku": 2165,
  "\u2581Did": 2166,
  "Q": 2167,
  "\u2581hours": 2168,
  "Ukuba": 2169,
  "\u2581regarding": 2170,
  "\u2581Kufuneka": 2171,
  "\u2581issue": 2172,
  "fumanisa": 2173,
  "\u2581everyone": 2174,
  "\u258122.": 2175,
  "\u2581ground": 2176,
  "\u2581ngxaki": 2177,
  "\u2581labo": 2178,
  "kuphela": 2179,
  "\u2581slave": 2180,
  "\u2581ngemihla": 2181,
  "\u2581appropriate": 2182,
  "\u2581kweminyaka": 2183,
  "\u2581osemazantsi": 2184,
  "\u2581iLizwi": 2185,
  "misela": 2186,
  "7": 2187,
  "\u2581War": 2188,
  "\u2581failed": 2189,
  "misa": 2190,
  "\u2581Indeed": 2191,
  "\u2581uKristu": 2192,
  "\u2581effort": 2193,
  "\u2581kwangaphambili": 2194,
  "\u2581umele": 2195,
  "xhasa": 2196,
  "\u2581wenze": 2197,
  "fanelekileyo": 2198,
  "\u2581magazine": 2199,
  "\u2581morning": 2200,
  "\u2581spiritually": 2201,
  "\u2581yinto": 2202,
  "\u2581IN": 2203,
  "\u2581Witness": 2204,
  "khupha": 2205,
  "nika": 2206,
  "Do": 2207,
  "\u2581lwalu": 2208,
  "\u2581ebandleni": 2209,
  "fumaneka": 2210,
  "\u258113,": 2211,
  "dlala": 2212,
  "\u2581sound": 2213,
  "\u2581yathi": 2214,
  "\u2581Ze": 2215,
  "\u2581OF": 2216,
  "\u2581kwakukho": 2217,
  "\u2581lee": 2218,
  "\u2581bawo": 2219,
  "\u2581explained": 2220,
  "\u2581run": 2221,
  "\u2581Luka": 2222,
  "\u2581wonderful": 2223,
  "\u258119,": 2224,
  "\u2581easy": 2225,
  "\u2581uBukumkani": 2226,
  "\u2581wayi": 2227,
  "\u2581wona": 2228,
  "\u2581Devil": 2229,
  "\u2581inspired": 2230,
  "\u2581Umntu": 2231,
  "\u2581appointed": 2232,
  "\u2581nako": 2233,
  "\u2581omtsha": 2234,
  "\u2581standards": 2235,
  "\u2581efforts": 2236,
  "\u2581pioneer": 2237,
  "\u2581iqela": 2238,
  "\u2581kwezinye": 2239,
  "\u2581letter": 2240,
  "\u2581pressure": 2241,
  "\u2581regular": 2242,
  "\u2581myself": 2243,
  "\u2581First": 2244,
  "\u2581Ekugqibeleni": 2245,
  "\u2581doubt": 2246,
  "\u2581kwicala": 2247,
  "\u2581visit": 2248,
  "\u2581IZenzo": 2249,
  "\u2581Europe": 2250,
  "\u2581building": 2251,
  "\u2581explains": 2252,
  "gcina": 2253,
  "\u2581ngolo": 2254,
  "\u2581bayo": 2255,
  "\u2581ela": 2256,
  "\u2581door": 2257,
  "\u2581passed": 2258,
  "\u2581youths": 2259,
  "\u2581Another": 2260,
  "\u2581elikhulu": 2261,
  "\u2581zayo": 2262,
  "\u2581uzi": 2263,
  "\u2581amaYuda": 2264,
  "\u2581job": 2265,
  "\u2581maka": 2266,
  "\u2581role": 2267,
  "\u2581umphefumlo": 2268,
  "Uku": 2269,
  "\u2581indeed": 2270,
  "\u2581created": 2271,
  "\u2581gift": 2272,
  "\u2581sun": 2273,
  "\u2581office": 2274,
  "\u2581(1)": 2275,
  "\u2581comfort": 2276,
  "\u2581kwelokuba": 2277,
  "\u2581oil": 2278,
  "\u2581third": 2279,
  "\u2581umzimba": 2280,
  "nto": 2281,
  "\u2581entliziyweni": 2282,
  "\u2581Ngokutsho": 2283,
  "\u2581date": 2284,
  "\u2581Like": 2285,
  "\u2581risk": 2286,
  "\u2581apply": 2287,
  "\u2581published": 2288,
  "\u2581results": 2289,
  "\u2581stop": 2290,
  "\u2581commanded": 2291,
  "\u2581event": 2292,
  "\u2581labantu": 2293,
  "senza": 2294,
  "\u2581emanzini": 2295,
  "\u2581sexual": 2296,
  "\u2581amehlo": 2297,
  "lwazi": 2298,
  "\u2581umyalelo": 2299,
  "bly": 2300,
  "nako": 2301,
  "\u2581activity": 2302,
  "vuya": 2303,
  "\u2581Roma": 2304,
  "\u2581millions": 2305,
  "kususela": 2306,
  "\u2581subject": 2307,
  "\u2581esikhulu": 2308,
  "\u2581Babe": 2309,
  "\u2581filled": 2310,
  "kile": 2311,
  "\u2581Uluhlu": 2312,
  "\u2581Jacob": 2313,
  "\u2581raised": 2314,
  "\u2581Kukho": 2315,
  "\u2581ekuqaleni": 2316,
  "\u2581opportunity": 2317,
  "\u2581training": 2318,
  "\u2581sam": 2319,
  "\u2581ukubona": 2320,
  "\u2581benze": 2321,
  "\u2581congregations": 2322,
  "\u2581nani": 2323,
  "\u2581okulungileyo": 2324,
  "\u2581Ngubani": 2325,
  "\u2581kwiintlanganiso": 2326,
  "\u2581activities": 2327,
  "\u2581Okanye": 2328,
  "thumela": 2329,
  "\u2581tried": 2330,
  "does": 2331,
  "pi": 2332,
  "ter": 2333,
  "\u2581Vula": 2334,
  "khona": 2335,
  "\u2581okubi": 2336,
  "\u2581takes": 2337,
  "\u2581disease": 2338,
  "\u2581drink": 2339,
  "\u2581senze": 2340,
  "':": 2341,
  "\u2581blessing": 2342,
  "\u2581zaba": 2343,
  "\u2581followed": 2344,
  "\u2581areas": 2345,
  "\u2581ibonisa": 2346,
  "\u2581stated": 2347,
  "sh": 2348,
  "\u258117,": 2349,
  "\u2581responsibility": 2350,
  "\u2581maintain": 2351,
  "\u2581zenu": 2352,
  "\u2581AmaNgqina": 2353,
  "\u2581imibuzo": 2354,
  "\u2581almost": 2355,
  "\u2581accepted": 2356,
  "\u2581banga": 2357,
  "\u2581Iya": 2358,
  "\u2581else": 2359,
  "\u2581praise": 2360,
  "\u2581angels": 2361,
  "\u2581Umbala": 2362,
  "\u2581social": 2363,
  "less": 2364,
  "\u2581Kamva": 2365,
  "\u2581prove": 2366,
  "-%": 2367,
  "\u2581Open": 2368,
  "\u2581Ukongezelela": 2369,
  "\u2581game": 2370,
  "\u2581elokuba": 2371,
  "\u2581iincwadi": 2372,
  "\u2581instead": 2373,
  "\u2581salvation": 2374,
  "6": 2375,
  "\u2581ngokufuthi": 2376,
  "\u2581thousands": 2377,
  "as": 2378,
  "\u2581confidence": 2379,
  "\u258124.": 2380,
  "hleli": 2381,
  "\u2581helps": 2382,
  "\u2581k": 2383,
  "\u2581getting": 2384,
  "\u2581Sebenzisa": 2385,
  "\u2581sight": 2386,
  "\u2581birth": 2387,
  "\u2581freedom": 2388,
  "\u2581umsindo": 2389,
  "\u2581addition": 2390,
  "\u2581iinqanawa": 2391,
  "\u2581Kwe": 2392,
  "\u2581below": 2393,
  "\u258134": 2394,
  "\u2581godly": 2395,
  "\u2581kwenu": 2396,
  "\u2581member": 2397,
  "\u2581influence": 2398,
  "\u2581ngokuthe": 2399,
  "\u2581ngoThixo": 2400,
  "jamelana": 2401,
  "\u2581destruction": 2402,
  "vakalisa": 2403,
  "\u2581kings": 2404,
  "\u2581term": 2405,
  "dala": 2406,
  "\u2581anchor": 2407,
  "\u2581Instead": 2408,
  "\u2581deal": 2409,
  "\u2581lizwe": 2410,
  "\u2581prevent": 2411,
  "\u2581Noah": 2412,
  "\u2581due": 2413,
  "\u2581services": 2414,
  "\u2581yazo": 2415,
  "khangela": 2416,
  "\u2581May": 2417,
  "\u2581Uhlobo": 2418,
  "\u2581decision": 2419,
  "hu": 2420,
  "\u2581\u25cf": 2421,
  "thobela": 2422,
  "\u2581Failed": 2423,
  "\u2581access": 2424,
  "\u2581miles": 2425,
  "\u2581offered": 2426,
  "\u2581elwandle": 2427,
  "\u2581include": 2428,
  "\u2581actually": 2429,
  "\u2581sometimes": 2430,
  "\u2581nabani": 2431,
  "ngayi": 2432,
  "\u2581Musa": 2433,
  "\u2581Gcina": 2434,
  "\u2581elizayo": 2435,
  "\u2581sign": 2436,
  "\u2581siza": 2437,
  "\u2581ngumntu": 2438,
  "Ba": 2439,
  "\u2581zazo": 2440,
  "mthetho": 2441,
  "velisa": 2442,
  "nyamekela": 2443,
  "\u2581Hence": 2444,
  "\u2581ndaza": 2445,
  "\u2581youth": 2446,
  "sebenzisa": 2447,
  "nyanga": 2448,
  "sinceda": 2449,
  "\u2581behold": 2450,
  "\u2581former": 2451,
  "qinisekisa": 2452,
  "\u2581Great": 2453,
  "funeka": 2454,
  "wi": 2455,
  "\u2581vital": 2456,
  "\u2581proved": 2457,
  "pho": 2458,
  "\u2581Have": 2459,
  "\u2581animals": 2460,
  "\u2581ebalulekileyo": 2461,
  "\u2581lands": 2462,
  "\u2581outside": 2463,
  "\u2581maxa": 2464,
  "\u2581met": 2465,
  "\u2581enemies": 2466,
  "\u2581exercise": 2467,
  "\u2581prayers": 2468,
  "gqiba": 2469,
  "buza": 2470,
  "\u2581send": 2471,
  "\u2581umyalezo": 2472,
  "\u2581lika": 2473,
  "jika": 2474,
  "son": 2475,
  "\u2581Cape": 2476,
  "\u2581level": 2477,
  "lala": 2478,
  "lisa": 2479,
  "shumayela": 2480,
  "\u2581promises": 2481,
  "\u2581Read": 2482,
  "\u2581Ngokufanayo": 2483,
  "\u2581laba": 2484,
  "ul": 2485,
  "\u2581practice": 2486,
  "\u2581stay": 2487,
  "ine": 2488,
  "\u2581bread": 2489,
  "\u2581kusini": 2490,
  "\u2581nantoni": 2491,
  "\u2581phi": 2492,
  "\u2581Asia": 2493,
  "\u2581Samuel": 2494,
  "\u2581beginning": 2495,
  "\u2581utsho": 2496,
  "\u2581Inkqubo": 2497,
  "\u2581ahead": 2498,
  "\u2581heavy": 2499,
  "\u2581kuse": 2500,
  "\u2581prob": 2501,
  "\u2581zoBukumkani": 2502,
  "weyo": 2503,
  "\u2581justice": 2504,
  "\u2581thoughts": 2505,
  "\u2581Mary": 2506,
  "\u2581chapter": 2507,
  "\u2581ready": 2508,
  "\u2581financial": 2509,
  "\u2581preach": 2510,
  "phakathi": 2511,
  "\u2581kwelinye": 2512,
  "\u2581ability": 2513,
  "\u2581ezweni": 2514,
  "buya": 2515,
  "gqithiseleyo": 2516,
  "\u2581benza": 2517,
  "khetha": 2518,
  "\u2581imifanekiso": 2519,
  "\u2581ngokucacileyo": 2520,
  "\u2581choose": 2521,
  "\u2581reach": 2522,
  "\u2581Ixesha": 2523,
  "\u2581enter": 2524,
  "\u2581entire": 2525,
  "\u2581develop": 2526,
  "\u2581Nga": 2527,
  "\u2581branch": 2528,
  "\u2581daily": 2529,
  "\u2581expression": 2530,
  "\u2581ngamaNgqina": 2531,
  "\u2581oo": 2532,
  "\u2581angama": 2533,
  "\u2581bear": 2534,
  "\u2581umtshato": 2535,
  "\u2581yesi": 2536,
  "ngoku": 2537,
  "\u2581Number": 2538,
  "\u2581ese": 2539,
  "\u2581ubulumko": 2540,
  "\u2581instance": 2541,
  "\u2581values": 2542,
  "\u2581Holy": 2543,
  "\u2581lokuqala": 2544,
  "\u2581individual": 2545,
  "\u2581moral": 2546,
  "\u2581De": 2547,
  "\u2581examples": 2548,
  "\u2581killed": 2549,
  "ch": 2550,
  "nyuka": 2551,
  "\u2581Eyona": 2552,
  "\u2581ezimbalwa": 2553,
  "\u2581couple": 2554,
  "\u2581kwalo": 2555,
  "\u2581sword": 2556,
  "\u2581Where": 2557,
  "\u2581Zo": 2558,
  "\u2581elithile": 2559,
  "\u2581ingxaki": 2560,
  "\u2581masi": 2561,
  "dle": 2562,
  "\u2581Asi": 2563,
  "\u2581ukusebenza": 2564,
  "\u2581;": 2565,
  "\u2581concerning": 2566,
  "\u2581cable": 2567,
  "\u2581ngaphezulu": 2568,
  "\u2581spoken": 2569,
  "\u2581behind": 2570,
  "\u2581gold": 2571,
  "tyelela": 2572,
  "\u2581process": 2573,
  "\u2581willing": 2574,
  "\u2581zonqulo": 2575,
  "Funda": 2576,
  "\u258120,": 2577,
  "\u2581length": 2578,
  "\u2581added": 2579,
  "\u2581pay": 2580,
  "\u2581waters": 2581,
  "ngazange": 2582,
  "\u258122,": 2583,
  "\u2581advice": 2584,
  "mazi": 2585,
  "zalwa": 2586,
  "\u2581baku": 2587,
  "\u2581condition": 2588,
  "\u2581ulwimi": 2589,
  "\u2581kwenziwa": 2590,
  "kileyo": 2591,
  "\u2581books": 2592,
  "God": 2593,
  "zenza": 2594,
  "\u2581wazi": 2595,
  "\u2581clearly": 2596,
  "\u2581ababini": 2597,
  "\u2581uluntu": 2598,
  "\u2581regard": 2599,
  "8": 2600,
  "\u2581eziphathekayo": 2601,
  "In": 2602,
  "\u2581Moreover": 2603,
  "\u2581laws": 2604,
  "phepha": 2605,
  "\u2581gama": 2606,
  "\u2581Still": 2607,
  "vula": 2608,
  "\u2581Isaya": 2609,
  "\u2581kangakanani": 2610,
  "\u2581View": 2611,
  "\u2581answers": 2612,
  "\u2581hour": 2613,
  "\u2581parent": 2614,
  "\u2581record": 2615,
  "\u2581rich": 2616,
  "\u2581treatment": 2617,
  "fo": 2618,
  "\u2581Awake": 2619,
  "\u2581names": 2620,
  "\u2581week": 2621,
  "\u2581fruit": 2622,
  "\u2581ngqo": 2623,
  "\u2581students": 2624,
  "\u2581uthe": 2625,
  "\u2581athile": 2626,
  "\u2581ebantwini": 2627,
  "vumela": 2628,
  "\u2581Me": 2629,
  "\u2581Zonke": 2630,
  "\u2581quickly": 2631,
  "\u2581reasons": 2632,
  "\u2581seems": 2633,
  "im": 2634,
  "\u2581determined": 2635,
  "\u2581fathers": 2636,
  "\u2581worldwide": 2637,
  "ngathi": 2638,
  "ngcwele": 2639,
  "\u2581accurate": 2640,
  "qonda": 2641,
  "\u2581Umsebenzi": 2642,
  "\u2581namandla": 2643,
  "\u2581yenu": 2644,
  "\u2581cargo": 2645,
  "\u2581ukuzi": 2646,
  "khu": 2647,
  "\u2581grow": 2648,
  "\u2581kune": 2649,
  "\u2581uYohane": 2650,
  "nti": 2651,
  "\u2581ndoda": 2652,
  "\u2581emibini": 2653,
  "\u2581owawu": 2654,
  "\u2581provides": 2655,
  "\u258118,": 2656,
  "\u2581isiluleko": 2657,
  "\u2581engakumbi": 2658,
  "\u2581weight": 2659,
  "\u2581Ingaba": 2660,
  "\u2581Sea": 2661,
  "\u2581Western": 2662,
  "\u2581senqanawa": 2663,
  "keyboard": 2664,
  "\u2581yourselves": 2665,
  "\u2581kwelo": 2666,
  "\u258135": 2667,
  "\u2581Time": 2668,
  "\u2581Before": 2669,
  "\u2581happen": 2670,
  "\u2581izixhobo": 2671,
  "Na": 2672,
  "xi": 2673,
  "phantsi": 2674,
  "\u2581zinga": 2675,
  "bala": 2676,
  "thatha": 2677,
  "\u2581isigqibo": 2678,
  "sindisa": 2679,
  "\u2581presence": 2680,
  "\u2581elizeleyo": 2681,
  "\u2581ilifa": 2682,
  "\u2581Efese": 2683,
  "\u2581beyond": 2684,
  "\u2581kubalulekile": 2685,
  "\u2581lamaKristu": 2686,
  "\u2581cases": 2687,
  "\u2581Baya": 2688,
  "nt": 2689,
  "\u258125.": 2690,
  "\u2581basis": 2691,
  "yazi": 2692,
  "\u2581Scriptural": 2693,
  "\u2581Also": 2694,
  "\u2581b": 2695,
  "\u2581bakaSirayeli": 2696,
  "\u2581opened": 2697,
  "\u2581yokuziphatha": 2698,
  "\u2581Kaloku": 2699,
  "\u2581ngamaxesha": 2700,
  "\u2581break": 2701,
  "\u2581wathetha": 2702,
  "\u2581recorded": 2703,
  "dlula": 2704,
  "fane": 2705,
  "\u2581National": 2706,
  "BAR": 2707,
  "\u2581learning": 2708,
  "\u2581umbhalo": 2709,
  "\u2581Hall": 2710,
  "bhu": 2711,
  "\u2581progress": 2712,
  "and": 2713,
  "\u2581Just": 2714,
  "sha": 2715,
  "\u2581Nceda": 2716,
  "\u2581p": 2717,
  "\u2581sika": 2718,
  "\u2581American": 2719,
  "\u2581Kungekudala": 2720,
  "\u2581wants": 2721,
  "\u2581olunye": 2722,
  "\u2581kuso": 2723,
  "\u2581enqanaweni": 2724,
  "faka": 2725,
  "\u2581uNyana": 2726,
  "\u2581Bethel": 2727,
  "\u2581baptism": 2728,
  "\u2581enjalo": 2729,
  "\u2581option": 2730,
  "\u2581quality": 2731,
  "leyo": 2732,
  "siya": 2733,
  "\u2581Church": 2734,
  "\u2581Kakade": 2735,
  "\u2581Za": 2736,
  "\u2581amawaka": 2737,
  "\u2581kangaka": 2738,
  "\u2581Sinoku": 2739,
  "\u2581kangako": 2740,
  "\u2581privilege": 2741,
  "\u2581mercy": 2742,
  "\u2581ndaba": 2743,
  "\u2581promised": 2744,
  "\u2581medical": 2745,
  "\u2581political": 2746,
  "\u2581blessings": 2747,
  "\u2581kungekho": 2748,
  "\u2581ndize": 2749,
  "\u2581proper": 2750,
  "ninzi": 2751,
  "\u2581Go": 2752,
  "bamba": 2753,
  "ive": 2754,
  "\u2581ezinjalo": 2755,
  "\u2581persons": 2756,
  "\u2581wawa": 2757,
  "\u2581trying": 2758,
  "mbo": 2759,
  "\u2581Njengokuba": 2760,
  "\u2581minister": 2761,
  "\u2581non": 2762,
  "qhutywa": 2763,
  "\u2581ngxelo": 2764,
  "\u2581seed": 2765,
  "baluleke": 2766,
  "nzima": 2767,
  "\u2581loyal": 2768,
  "\u2581original": 2769,
  "\u2581entle": 2770,
  "\u2581File": 2771,
  "\u2581Though": 2772,
  "\u2581concern": 2773,
  "\u2581copy": 2774,
  "\u2581per": 2775,
  "\u2581prison": 2776,
  "ngendawo": 2777,
  "thwala": 2778,
  "\u2581suffer": 2779,
  "\u2581blessed": 2780,
  "\u2581zize": 2781,
  "\u2581established": 2782,
  "ut": 2783,
  "\u2581Move": 2784,
  "\u2581lawo": 2785,
  "\u2581abaselula": 2786,
  "\u2581low": 2787,
  "\u2581saved": 2788,
  "\u2581nguye": 2789,
  "\u2581yenza": 2790,
  "\u2581laid": 2791,
  "\u2581room": 2792,
  "\u2581play": 2793,
  "\u2581top": 2794,
  "gula": 2795,
  "\u2581creation": 2796,
  "\u2581sase": 2797,
  "\u2581wokuba": 2798,
  "\u2581yokomoya": 2799,
  "fundiswa": 2800,
  "su": 2801,
  "\u2581earlier": 2802,
  "\u2581esandleni": 2803,
  "\u2581languages": 2804,
  "\u2581angel": 2805,
  "\u2581ransom": 2806,
  "\u2581Keep": 2807,
  "\u2581amagama": 2808,
  "\u2581isono": 2809,
  "bho": 2810,
  "\u2581ngokuvisisana": 2811,
  "\u2581placed": 2812,
  "baleka": 2813,
  "\u2581Later": 2814,
  "\u2581Other": 2815,
  "\u2581izihlandlo": 2816,
  "chitha": 2817,
  "\u2581(2)": 2818,
  "\u2581lack": 2819,
  "nkulungwane": 2820,
  "\u2581ingakumbi": 2821,
  "\u2581Only": 2822,
  "\u2581experienced": 2823,
  "\u2581kubonakala": 2824,
  "\u2581kunokwenzeka": 2825,
  "\u2581yaza": 2826,
  "\u2581Add": 2827,
  "\u2581mail": 2828,
  "\u2581Yoku": 2829,
  "\u2581destroyed": 2830,
  "\u2581eni": 2831,
  "jonge": 2832,
  "\u258136": 2833,
  "ja": 2834,
  "\u2581kusinceda": 2835,
  "\u2581test": 2836,
  "Jehovah": 2837,
  "phulaphula": 2838,
  "\u2581lines": 2839,
  "\u2581nango": 2840,
  "\u2581kuyi": 2841,
  "\u2581noYehova": 2842,
  "\u2581ntsapho": 2843,
  "\u2581round": 2844,
  "\u2581teachings": 2845,
  "\u2581ulwalamano": 2846,
  "\u2581wenu": 2847,
  "ngazi": 2848,
  "\u258145": 2849,
  "\u2581cast": 2850,
  "bhekisela": 2851,
  "\u258123:": 2852,
  "\u2581kungekudala": 2853,
  "un": 2854,
  "\u2581foretold": 2855,
  "\u2581task": 2856,
  "njalo": 2857,
  "\u2581V": 2858,
  "\u2581education": 2859,
  "sondela": 2860,
  "\u2581AmaKristu": 2861,
  "\u2581awo": 2862,
  "\u2581immediately": 2863,
  "\u2581beku": 2864,
  "\u2581amount": 2865,
  "\u2581Nevertheless": 2866,
  "\u2581precious": 2867,
  "\u2581yehlabathi": 2868,
  "\u2581unit": 2869,
  "hlo": 2870,
  "lawulwa": 2871,
  "\u2581abaye": 2872,
  "\u2581protection": 2873,
  "We": 2874,
  "\u2581Iqhosha": 2875,
  "\u2581Kuya": 2876,
  "\u2581completely": 2877,
  "\u2581related": 2878,
  "chazwa": 2879,
  "zange": 2880,
  "\u2581kukaYesu": 2881,
  "\u2581reports": 2882,
  "\u2581amathathu": 2883,
  "\u2581centuries": 2884,
  "\u2581izigqibo": 2885,
  "\u2581ufumane": 2886,
  "\u2581About": 2887,
  "\u2581zikaThixo": 2888,
  "nqula": 2889,
  "qe": 2890,
  "\u2581inside": 2891,
  "\u2581intambo": 2892,
  "\u2581load": 2893,
  "If": 2894,
  "\u2581images": 2895,
  "ity": 2896,
  "\u2581active": 2897,
  "\u2581gods": 2898,
  "\u2581kubomi": 2899,
  "\u2581prepared": 2900,
  "ent": 2901,
  "\u25817]": 2902,
  "Be": 2903,
  "njani": 2904,
  "\u2581standing": 2905,
  "\u2581Tract": 2906,
  "\u2581ecaleni": 2907,
  "\u2581omhle": 2908,
  "\u2581Kwiminyaka": 2909,
  "\u2581wokuqala": 2910,
  "\u2581lona": 2911,
  "@": 2912,
  "\u2581Thixo": 2913,
  "ck": 2914,
  "\u2581km": 2915,
  "\u2581obey": 2916,
  "weni": 2917,
  "\u2581crowd": 2918,
  "\u2581zona": 2919,
  "\u2581kuthethwa": 2920,
  "\u2581Dr": 2921,
  "\u2581bayi": 2922,
  "\u2581lot": 2923,
  "\u2581wayeza": 2924,
  "\u2581besithi": 2925,
  "\u2581decisions": 2926,
  "ji": 2927,
  "ver": 2928,
  "\u2581Her": 2929,
  "\u2581Ka": 2930,
  "\u2581conscience": 2931,
  "\u2581occasion": 2932,
  "\u2581battle": 2933,
  "\u2581ethu": 2934,
  "\u2581ngeendlela": 2935,
  "\u2581stern": 2936,
  "\u2581uhlanga": 2937,
  "nayo": 2938,
  "ton": 2939,
  "kuvuyela": 2940,
  "\u2581knows": 2941,
  "\u2581ndawonye": 2942,
  "\u2581sizi": 2943,
  "\u2581njengoku": 2944,
  "jonga": 2945,
  "ny": 2946,
  "phumelela": 2947,
  "\u2581major": 2948,
  "\u2581eninzi": 2949,
  "\u2581Bonke": 2950,
  "\u2581looking": 2951,
  "\u2581besi": 2952,
  "\u2581convention": 2953,
  "\u2581lwam": 2954,
  "\u2581decided": 2955,
  "\u2581nature": 2956,
  "\u2581protect": 2957,
  "\u2581loss": 2958,
  "nani": 2959,
  "\u2581Joshua": 2960,
  "\u2581shal": 2961,
  "\u2581worked": 2962,
  "\u2581eziliqela": 2963,
  "\u2581spread": 2964,
  "\u2581isithi": 2965,
  "\u2581ukuhlala": 2966,
  "\u2581ngomhla": 2967,
  "\u2581Image": 2968,
  "\u2581Others": 2969,
  "\u2581imigaqo": 2970,
  "\u2581relative": 2971,
  "rs": 2972,
  "\u2581Amagama": 2973,
  "nje": 2974,
  "\u2581Phakathi": 2975,
  "\u2581Timoti": 2976,
  "\u2581affect": 2977,
  "ano": 2978,
  "betha": 2979,
  "at": 2980,
  "buyela": 2981,
  "\u2581ukugcina": 2982,
  "\u2581igunya": 2983,
  "\u2581imitate": 2984,
  "budeni": 2985,
  "\u2581Save": 2986,
  "funyanwa": 2987,
  "\u2581simple": 2988,
  "It": 2989,
  "\u2581attend": 2990,
  "\u2581basenoku": 2991,
  "\u2581yokwenza": 2992,
  "bekwa": 2993,
  "imeyili": 2994,
  "\u2581Ask": 2995,
  "\u2581Sasi": 2996,
  "\u2581kwihlabathi": 2997,
  "\u2581ayo": 2998,
  "\u2581manner": 2999,
  "ru": 3000,
  "\u2581eze": 3001,
  "\u2581libe": 3002,
  "\u2581ukuphila": 3003,
  "\u2581zee": 3004,
  "yeka": 3005,
  "\u2581Christendom": 3006,
  "\u2581Ngaphambi": 3007,
  "\u2581appear": 3008,
  "\u2581effective": 3009,
  "\u2581safe": 3010,
  "\u2581ityala": 3011,
  "\u2581saba": 3012,
  "\u00e9": 3013,
  "\u2581community": 3014,
  "\u2581begin": 3015,
  "\u2581harmony": 3016,
  "\u2581practical": 3017,
  "\u2581appreciation": 3018,
  "\u2581bokuba": 3019,
  "\u2581olukhulu": 3020,
  "\u2581Kwakutheni": 3021,
  "\u2581akwazi": 3022,
  "\u2581ngalinye": 3023,
  "\u2581speech": 3024,
  "tsala": 3025,
  "\u2581isiqulathi": 3026,
  "\u2581nayiphi": 3027,
  "\u2581kunzima": 3028,
  "\u2581esikolweni": 3029,
  "\u2581sex": 3030,
  "ngama": 3031,
  "\u2581Njani": 3032,
  "\u2581List": 3033,
  "\u2581abangamaKristu": 3034,
  "\u2581greatest": 3035,
  "\u2581uyise": 3036,
  "\u2581location": 3037,
  "\u2581particularly": 3038,
  "type": 3039,
  "\u2581Njengo": 3040,
  "\u2581check": 3041,
  "\u2581midst": 3042,
  "\u2581reported": 3043,
  "\u2581wine": 3044,
  "\u2581normal": 3045,
  "ism": 3046,
  "nta": 3047,
  "\u2581Petros": 3048,
  "\u2581earthly": 3049,
  "\u2581lukaYehova": 3050,
  "\u2581oya": 3051,
  "\u2581actions": 3052,
  "\u2581intetho": 3053,
  "\u2581regularly": 3054,
  "\u2581sick": 3055,
  "\u2581kwezo": 3056,
  "lindele": 3057,
  "\u2581impahla": 3058,
  "\u2581Create": 3059,
  "\u2581fell": 3060,
  "\u2581eziyi": 3061,
  "\u2581development": 3062,
  "\u2581terms": 3063,
  "9": 3064,
  "\u2581Eve": 3065,
  "zaliswe": 3066,
  "cacisa": 3067,
  "\u2581ema": 3068,
  "\u2581kwana": 3069,
  "\u2581leaders": 3070,
  "swa": 3071,
  "\u2581believers": 3072,
  "yenza": 3073,
  "\u2581Afrika": 3074,
  "Read": 3075,
  "ngi": 3076,
  "\u2581zokomoya": 3077,
  "\u2581integrity": 3078,
  "id": 3079,
  "ngafuni": 3080,
  "\u2581impazamo": 3081,
  "\u2581ngonyaka": 3082,
  "\u2581Footnote": 3083,
  "\u2581goes": 3084,
  "\u2581nyaka": 3085,
  "\u2581Lwe": 3086,
  "\u2581ngowama": 3087,
  "\u2581nomfazi": 3088,
  "\u2581alive": 3089,
  "\u2581iZibhalo": 3090,
  "khusela": 3091,
  "\u2581bottom": 3092,
  "\u2581elder": 3093,
  "lingana": 3094,
  "\u2581acts": 3095,
  "\u2581musa": 3096,
  "\u2581Siya": 3097,
  "\u2581komnye": 3098,
  "\u2581waqalisa": 3099,
  "\u2581bafanele": 3100,
  "\u2581izandla": 3101,
  "buyisela": 3102,
  "\u2581delivered": 3103,
  "\u2581girl": 3104,
  "rd": 3105,
  "\u2581isahluko": 3106,
  "\u2581kubonisa": 3107,
  "\u2581ukuqonda": 3108,
  "\u2581nini": 3109,
  "\u2581wonder": 3110,
  "\u2581nqaku": 3111,
  "\u2581zehlabathi": 3112,
  "liso": 3113,
  "\u2581ngolu": 3114,
  "\u2581nguYesu": 3115,
  "\u2581security": 3116,
  "\u2581yindlela": 3117,
  "\u2581business": 3118,
  "\u2581positive": 3119,
  "\u2581calls": 3120,
  "\u2581fulfilled": 3121,
  "\u2581interested": 3122,
  "ngaba": 3123,
  "\u2581jikelele": 3124,
  "\u2581kusi": 3125,
  "\u2581prophets": 3126,
  "\u2581chosen": 3127,
  "\u2581Abazali": 3128,
  "\u2581walo": 3129,
  "\u2581Ubungakanani": 3130,
  "\u2581fast": 3131,
  "\u2581recent": 3132,
  "\u2581becoming": 3133,
  "\u2581gone": 3134,
  "nk": 3135,
  "\u2581Unable": 3136,
  "\u2581bezi": 3137,
  "\u2581indicated": 3138,
  "\u2581mine": 3139,
  "\u2581whatever": 3140,
  "\u2581Set": 3141,
  "\u2581ubukumkani": 3142,
  "\u2581umzalwana": 3143,
  "xe": 3144,
  "\u2581appreciate": 3145,
  "\u2581keyboard": 3146,
  "\u2581UM": 3147,
  "\u2581evela": 3148,
  "\u2581zamaKristu": 3149,
  "ela": 3150,
  "\u2581particular": 3151,
  "\u2581showing": 3152,
  "ii": 3153,
  "\u2581\"\"": 3154,
  "No": 3155,
  "\u2581approach": 3156,
  "guquka": 3157,
  "nee": 3158,
  "\u2581Each": 3159,
  "\u2581Faka": 3160,
  "\u2581music": 3161,
  "\u2581application": 3162,
  "\u2581crime": 3163,
  "\u2581discipline": 3164,
  "ir": 3165,
  "\u2581helping": 3166,
  "\u2581lie": 3167,
  "\u2581psalmist": 3168,
  "\u2581unako": 3169,
  "\u2581final": 3170,
  "\u2581imi": 3171,
  "\u2581respond": 3172,
  "\u2581watch": 3173,
  "tu": 3174,
  "\u00a9": 3175,
  "\u2581ebonisa": 3176,
  "\u2581ngabanye": 3177,
  "\u2581tells": 3178,
  "\u2581wives": 3179,
  "For": 3180,
  "ngenxa": 3181,
  "\u2581Kuthekani": 3182,
  "mthanda": 3183,
  "\u2581developed": 3184,
  "\u2581kangangeminyaka": 3185,
  "\u2581literature": 3186,
  "kholwa": 3187,
  "thandwa": 3188,
  "\u2581ezahlukeneyo": 3189,
  "\u2581ubunzima": 3190,
  "nkqubo": 3191,
  "\u2581Khangela": 3192,
  "\u2581lay": 3193,
  "ofisi": 3194,
  "\u2581namnye": 3195,
  "phawula": 3196,
  "\u2581abazi": 3197,
  "\u2581fulfillment": 3198,
  "\u2581warning": 3199,
  "lela": 3200,
  "\u2581ngesi": 3201,
  "\u2581assigned": 3202,
  "\u2581beautiful": 3203,
  "\u2581sleep": 3204,
  "\u2581zama": 3205,
  "\u2581invited": 3206,
  "\u2581kwincwadi": 3207,
  "\u2581points": 3208,
  "\u2581Evolution": 3209,
  "\u2581High": 3210,
  "\u2581dwell": 3211,
  "\u2581theme": 3212,
  "\u2581ndibe": 3213,
  "\u2581default": 3214,
  "\u2581ngubani": 3215,
  "\u258129.": 3216,
  "\u2581ethe": 3217,
  "\u2581Kwelinye": 3218,
  "\u2581Children": 3219,
  "\u2581judge": 3220,
  "\u2581Kanti": 3221,
  "\u2581Remember": 3222,
  "\u2581Yehlabathi": 3223,
  "\u2581babantu": 3224,
  "\u2581emsebenzini": 3225,
  "\u2581njenga": 3226,
  "\u2581ukuvula": 3227,
  "xhaswa": 3228,
  "\u2581abuse": 3229,
  "\u2581c": 3230,
  "\u2581mali": 3231,
  "khaya": 3232,
  "phumela": 3233,
  "\u2581Kwathi": 3234,
  "\u2581ezintle": 3235,
  "\u2581kwafuneka": 3236,
  "\u2581kwamanzi": 3237,
  "\u2581weBhayibhile": 3238,
  "\u2581Nakuba": 3239,
  "\u2581Perhaps": 3240,
  "\u2581eqhelekileyo": 3241,
  "\u2581onoku": 3242,
  "\u2581sithi": 3243,
  "\u2581inoku": 3244,
  "bakho": 3245,
  "\u2581background": 3246,
  "\u2581groups": 3247,
  "\u2581keeping": 3248,
  "\u2581destroy": 3249,
  "\u2581response": 3250,
  "\u2581layo": 3251,
  "\u2581walking": 3252,
  "\u2581noted": 3253,
  "\u2581Behold": 3254,
  "\u2581none": 3255,
  "\u2581uli": 3256,
  "lunge": 3257,
  "\u2581strengthen": 3258,
  "ary": 3259,
  "\u2581encouraged": 3260,
  "\u2581rejoice": 3261,
  "\u2581St": 3262,
  "\u2581fight": 3263,
  "\u2581ngomoya": 3264,
  "xela": 3265,
  "\u2581Ngokwenene": 3266,
  "\u2581Maxa": 3267,
  "\u2581akayi": 3268,
  "con": 3269,
  "\u2581Makhe": 3270,
  "\u2581Misela": 3271,
  "\u2581bakwazi": 3272,
  "\u2581favor": 3273,
  "AL": 3274,
  "biza": 3275,
  "\u2581ekupheleni": 3276,
  "\u2581feeling": 3277,
  "mpu": 3278,
  "\u2581stood": 3279,
  "\u2581responsible": 3280,
  "\u2581uYakobi": 3281,
  "ah": 3282,
  "xelela": 3283,
  "\u2581challenge": 3284,
  "\u2581contains": 3285,
  "\u2581zika": 3286,
  "\u2581luka": 3287,
  "\u2581paradise": 3288,
  "\u2581specific": 3289,
  "\u2581ulutsha": 3290,
  "themba": 3291,
  "chaphazela": 3292,
  "mu": 3293,
  "phakamisa": 3294,
  "qa": 3295,
  "\u2581assignment": 3296,
  "\u2581deliver": 3297,
  "\u258190": 3298,
  "ian": 3299,
  "\u2581society": 3300,
  "\u2581chief": 3301,
  "\u2581hayi": 3302,
  "\u2581inkonzo": 3303,
  "jamelene": 3304,
  "\u258165": 3305,
  "\u2581court": 3306,
  "\u2581revealed": 3307,
  "zela": 3308,
  "\u2581Spirit": 3309,
  "\u2581space": 3310,
  "\u2581umKristu": 3311,
  "\u2581wamanzi": 3312,
  ":\"": 3313,
  "\u2581Bambi": 3314,
  "\u2581lower": 3315,
  "\u2581meant": 3316,
  "\u2581kusenoku": 3317,
  "\u2581uAbraham": 3318,
  "\u2581bazo": 3319,
  "\u2581neli": 3320,
  "\u258180": 3321,
  "\u2581correct": 3322,
  "\u2581produce": 3323,
  "\u2581<": 3324,
  "\u2581idea": 3325,
  "\u2581uAdam": 3326,
  "?\"": 3327,
  "La": 3328,
  "\u2581increased": 3329,
  "\u2581missionary": 3330,
  "\u2581Young": 3331,
  "\u2581environment": 3332,
  "\u2581ngamazwi": 3333,
  "\u2581steps": 3334,
  "\u2581white": 3335,
  "\u2581gathered": 3336,
  "\u2581supported": 3337,
  "\u2581uSolomon": 3338,
  "\u2581operation": 3339,
  "\u2581prayed": 3340,
  "\u2581usi": 3341,
  "Xa": 3342,
  "\u2581port": 3343,
  "fakwa": 3344,
  "\u2581Ubomi": 3345,
  "\u2581seeking": 3346,
  "bhalwe": 3347,
  "\u258128.": 3348,
  "\u2581Good": 3349,
  "\u2581fitted": 3350,
  "nikelwa": 3351,
  "\u2581flock": 3352,
  "\u2581Man": 3353,
  "hlasela": 3354,
  "\u2581ngokungathi": 3355,
  "\u2581Brother": 3356,
  "\u2581imfazwe": 3357,
  "\u2581ngokwa": 3358,
  "\u2581Ephesians": 3359,
  "\u2581easily": 3360,
  "\u2581spent": 3361,
  "\u2581Gilead": 3362,
  "\u2581add": 3363,
  "\u2581danger": 3364,
  "xo": 3365,
  "\u2581ukuhamba": 3366,
  "\u2581causes": 3367,
  "\u2581included": 3368,
  "\u2581Bona": 3369,
  "\u2581kumele": 3370,
  "\u2581looked": 3371,
  "\u2581user": 3372,
  "\u2581wait": 3373,
  "tyala": 3374,
  "\u2581Footnotes": 3375,
  "ngokuqhelekileyo": 3376,
  "org": 3377,
  "\u2581kaSirayeli": 3378,
  "\u2581kusenokwenzeka": 3379,
  "bhalela": 3380,
  "\u2581Internet": 3381,
  "\u2581bambi": 3382,
  "\u2581yoBukumkani": 3383,
  "\u2581Ngaphandle": 3384,
  "\u2581Q": 3385,
  "\u2581realize": 3386,
  "\u2581x": 3387,
  "ngakwazi": 3388,
  "\u2581Book": 3389,
  "\u2581kwindlu": 3390,
  "\u2581mighty": 3391,
  "qhagamshelana": 3392,
  "\u2581Un": 3393,
  "\u2581benefits": 3394,
  "\u2581isigidimi": 3395,
  "\u2581surely": 3396,
  "\u2581engcwele": 3397,
  "\u2581kill": 3398,
  "\u2581Abantwana": 3399,
  "\u2581iphela": 3400,
  "gweba": 3401,
  "khawuleza": 3402,
  "vo": 3403,
  "\u258138": 3404,
  "\u2581Ngelo": 3405,
  "\u2581ingqondo": 3406,
  "\u2581request": 3407,
  "ol": 3408,
  "\u2581500": 3409,
  "\u2581kwakufuneka": 3410,
  "\u2581expect": 3411,
  "\u2581probably": 3412,
  "\u2581ekwenzeni": 3413,
  "\u2581naseku": 3414,
  "\u2581quite": 3415,
  "semthethweni": 3416,
  "\u2581200": 3417,
  "\u2581nentsapho": 3418,
  "\u2581personality": 3419,
  "\u2581School": 3420,
  "\u2581Two": 3421,
  "\u2581success": 3422,
  "thunyelwa": 3423,
  "\u2581exist": 3424,
  "phambili": 3425,
  "\u2581Mna": 3426,
  "Li": 3427,
  "\u2581abahlobo": 3428,
  "\u2581niya": 3429,
  "\u2581patient": 3430,
  "sekelwe": 3431,
  "\u2581bakaYesu": 3432,
  "Zi": 3433,
  "\u2581abali": 3434,
  "\u2581bebe": 3435,
  "\u2581mate": 3436,
  "\u2581bafuna": 3437,
  "\u2581army": 3438,
  "\u2581womntu": 3439,
  "\u2581yolawulo": 3440,
  "\u2581basemazweni": 3441,
  "\u2581eventually": 3442,
  "\u2581kufa": 3443,
  "tic": 3444,
  "nqa": 3445,
  "\u2581Should": 3446,
  "\u2581total": 3447,
  "mka": 3448,
  "\u2581isixhobo": 3449,
  "\u2581kwimeko": 3450,
  "To": 3451,
  "che": 3452,
  "\u2581ngokukodwa": 3453,
  "\u2581Take": 3454,
  "\u2581nearly": 3455,
  "\u2581surface": 3456,
  "\u2581object": 3457,
  "per": 3458,
  "\u2581Search": 3459,
  "\u2581buya": 3460,
  "\u2581oyi": 3461,
  "\u2581mountain": 3462,
  "\u2581abalandeli": 3463,
  "\u2581afraid": 3464,
  "\u2581format": 3465,
  "\u2581silver": 3466,
  "J": 3467,
  "namandla": 3468,
  "\u2581importance": 3469,
  "\u2581spend": 3470,
  "He": 3471,
  "\u2581behavior": 3472,
  "\u2581endure": 3473,
  "\u2581guidance": 3474,
  "\u2581inkululeko": 3475,
  "\u2581arrived": 3476,
  "\u2581believed": 3477,
  "\u2581ezifana": 3478,
  "\u2581improve": 3479,
  "\u2581naxa": 3480,
  "dibanisa": 3481,
  "\u2581lokwenyaniso": 3482,
  "\u2581oselula": 3483,
  "\u2581designed": 3484,
  "\u2581knowing": 3485,
  "\u258123]": 3486,
  "\u2581items": 3487,
  "dwa": 3488,
  "njenge": 3489,
  "\u2581abafazi": 3490,
  "\u2581remove": 3491,
  "\u2581style": 3492,
  "\u2581uluhlu": 3493,
  "\u2581vision": 3494,
  "\u2581History": 3495,
  "\u2581abemi": 3496,
  "\u2581inceba": 3497,
  "nyamezela": 3498,
  "\u2581Cima": 3499,
  "\u2581Don": 3500,
  "\u2581expected": 3501,
  "\u2581iba": 3502,
  "\u2581uvuyo": 3503,
  "\u2581effects": 3504,
  "\u2581kufuna": 3505,
  "\u2581distance": 3506,
  "magama": 3507,
  "\u2581emotional": 3508,
  "ies": 3509,
  "\u2581Department": 3510,
  "\u2581pure": 3511,
  ">": 3512,
  "\u2581studying": 3513,
  "\u2581Ayi": 3514,
  "\u2581password": 3515,
  "zise": 3516,
  "\u2581kwane": 3517,
  "sandul": 3518,
  "yena": 3519,
  "\u2581ezintsha": 3520,
  "\u2581bow": 3521,
  "\u2581interests": 3522,
  "\u2581lweBhayibhile": 3523,
  "\u2581nangakumbi": 3524,
  "nikwe": 3525,
  "susa": 3526,
  "\u2581firm": 3527,
  "\u2581umprofeti": 3528,
  "\u2581isimo": 3529,
  "\u2581mode": 3530,
  "\u2581Love": 3531,
  "\u2581Messiah": 3532,
  "\u2581path": 3533,
  "bone": 3534,
  "\u2581writing": 3535,
  "cha": 3536,
  "mise": 3537,
  "\u2581choice": 3538,
  "\u2581yesibini": 3539,
  "\u2581elivisayo": 3540,
  "\u2581household": 3541,
  "\u2581item": 3542,
  "\u2581uMtyholi": 3543,
  "sebenzise": 3544,
  "\u2581engqondweni": 3545,
  "\u2581ethetha": 3546,
  "\u2581imiyalezo": 3547,
  "\u2581ubulungisa": 3548,
  "mbono": 3549,
  "\u2581Hebhere": 3550,
  "\u2581Over": 3551,
  "\u2581bali": 3552,
  "\u2581eight": 3553,
  "\u2581humble": 3554,
  "\u2581tongue": 3555,
  "\u2581yonqulo": 3556,
  "\u2581ekuthiwa": 3557,
  "\u2581ububele": 3558,
  "\u2581ubude": 3559,
  "os": 3560,
  "\u2581Eden": 3561,
  "\u2581altar": 3562,
  "\u2581box": 3563,
  "\u2581empty": 3564,
  "\u2581express": 3565,
  "\u2581lixesha": 3566,
  "\u2581running": 3567,
  "\u2581economic": 3568,
  "\u2581wilderness": 3569,
  "Holo": 3570,
  "siseko": 3571,
  "zala": 3572,
  "\u2581computer": 3573,
  "\u2581expressed": 3574,
  "\u2581higher": 3575,
  "\u2581ububi": 3576,
  "\u2581although": 3577,
  "\u2581requires": 3578,
  "\u2581trials": 3579,
  "Let": 3580,
  "mbu": 3581,
  "\u2581Folder": 3582,
  "\u2581lithi": 3583,
  "\u2581babu": 3584,
  "\u2581l": 3585,
  "\u2581ngasemva": 3586,
  "\u2581ngezi": 3587,
  "kuthanda": 3588,
  "nokuba": 3589,
  "\u2581abayi": 3590,
  "\u2581ngenyameko": 3591,
  "\u2581ngumoya": 3592,
  "fumene": 3593,
  "\u25819]": 3594,
  "\u2581Enoba": 3595,
  "\u2581abu": 3596,
  "\u2581eminyaka": 3597,
  "\u2581enjoyed": 3598,
  "\u2581ithetha": 3599,
  "\u2581kubulungiseleli": 3600,
  "\u2581African": 3601,
  "\u2581inhabitants": 3602,
  "Pa": 3603,
  "\u2581balo": 3604,
  "\u2581kwaphela": 3605,
  "\u2581neighbor": 3606,
  "19": 3607,
  "\u2581sikwazi": 3608,
  "Lo": 3609,
  "\u258121,": 3610,
  "\u2581Kusenokwenzeka": 3611,
  "banjwa": 3612,
  "\u2581Eku": 3613,
  "\u2581Ngu": 3614,
  "\u2581g": 3615,
  "\u2581nokholo": 3616,
  "\u2581sokuqala": 3617,
  "ER": 3618,
  "\u2581brings": 3619,
  "\u2581zizinto": 3620,
  "\u2581Text": 3621,
  "\u2581iifayili": 3622,
  "ous": 3623,
  "zazi": 3624,
  "\u2581darkness": 3625,
  "\u2581intloko": 3626,
  "\u2581komhlaba": 3627,
  "\u2581kuthiwa": 3628,
  "yona": 3629,
  "\u2581encourage": 3630,
  "\u2581weather": 3631,
  "\u258128:": 3632,
  "\u2581mafutha": 3633,
  "\u2581ulawulo": 3634,
  "\u2581Here": 3635,
  "\u2581daughters": 3636,
  "\u2581devotion": 3637,
  "\u2581olwa": 3638,
  "\u2581asixhenxe": 3639,
  "\u2581focus": 3640,
  "setyenziselwa": 3641,
  "\u2581Z": 3642,
  "\u2581setting": 3643,
  "hlonela": 3644,
  "nte": 3645,
  "phelelwa": 3646,
  "sazi": 3647,
  "\u2581Ibe": 3648,
  "\u2581Soon": 3649,
  "\u2581applied": 3650,
  "See": 3651,
  "swe": 3652,
  "\u25811914": 3653,
  "\u2581Make": 3654,
  "\u2581damage": 3655,
  "\u2581extent": 3656,
  "\u2581mental": 3657,
  "\u2581step": 3658,
  "thintela": 3659,
  "\u2581enda": 3660,
  "\u2581handle": 3661,
  "\u2581picture": 3662,
  "\u2581umva": 3663,
  "\u258131.": 3664,
  "\u2581egameni": 3665,
  "\u2581izimvu": 3666,
  "\u2581late": 3667,
  "\u2581Phawula": 3668,
  "\u2581benu": 3669,
  "Ke": 3670,
  "Mfazwe": 3671,
  "\u2581boy": 3672,
  "\u2581majority": 3673,
  "\u2581okungakumbi": 3674,
  "\u2581broken": 3675,
  "\u2581eYiputa": 3676,
  "\u2581includes": 3677,
  "=": 3678,
  "\u2581cover": 3679,
  "ling": 3680,
  "\u2581Display": 3681,
  "\u2581Rome": 3682,
  "\u2581basic": 3683,
  "\u2581nxamnye": 3684,
  "\u2581amabhinqa": 3685,
  "\u2581front": 3686,
  "\u2581mbuzo": 3687,
  "WA": 3688,
  "\u2581inkqubela": 3689,
  "\u2581banoku": 3690,
  "\u2581notes": 3691,
  "nqwenela": 3692,
  "rha": 3693,
  "up": 3694,
  "\u2581inkoliso": 3695,
  "\u2581mibuzo": 3696,
  "Evolution": 3697,
  "\u2581Service": 3698,
  "\u2581goal": 3699,
  "\u2581imilinganiselo": 3700,
  "\u2581vessels": 3701,
  "\u2581ngaphaya": 3702,
  "\u2581observed": 3703,
  "\u2581oza": 3704,
  "ngeka": 3705,
  "\u25811990": 3706,
  "\u2581beliefs": 3707,
  "ncinane": 3708,
  "\u2581mbandela": 3709,
  "\u2581okuthile": 3710,
  "\u2581Kunokuba": 3711,
  "\u2581elilandelayo": 3712,
  "yalela": 3713,
  "\u2581izenzo": 3714,
  "\u2581measure": 3715,
  "thandaza": 3716,
  "xabiso": 3717,
  "\u2581Mount": 3718,
  "\u2581concerned": 3719,
  "\u2581ixabiso": 3720,
  "\u2581kwisi": 3721,
  "\u2581studies": 3722,
  "\u2581yobomi": 3723,
  "LE": 3724,
  "cebisa": 3725,
  "mva": 3726,
  "\u2581enoku": 3727,
  "\u2581eyadlulayo": 3728,
  "\u2581lathi": 3729,
  "\u2581Similarly": 3730,
  "\u2581principle": 3731,
  "\u2581doctor": 3732,
  "\u2581fail": 3733,
  "\u2581ukuyi": 3734,
  "\u2581Izi": 3735,
  "\u2581Key": 3736,
  "\u2581forget": 3737,
  "\u2581minutes": 3738,
  "\u2581ndiku": 3739,
  "\u2581traveling": 3740,
  "\u2581tribulation": 3741,
  "\u2581zezi": 3742,
  "\u2581EMelika": 3743,
  "\u2581relief": 3744,
  "\u2581declared": 3745,
  "\u2581izono": 3746,
  "ld": 3747,
  "\u2581ezinga": 3748,
  "\u2581onga": 3749,
  "\u2581z": 3750,
  "\u2581evening": 3751,
  "\u2581trees": 3752,
  "sinika": 3753,
  "\u2581Germany": 3754,
  "\u2581yenqanawa": 3755,
  "am": 3756,
  "khulula": 3757,
  "ndlela": 3758,
  "\u2581carefully": 3759,
  "\u2581resources": 3760,
  "10": 3761,
  "lungele": 3762,
  "\u2581national": 3763,
  "\u2581Christianity": 3764,
  "\u2581camp": 3765,
  "\u2581workers": 3766,
  "\u2581Us": 3767,
  "\u2581drugs": 3768,
  "\u2581iintliziyo": 3769,
  "lise": 3770,
  "tshabalalisa": 3771,
  "\u2581big": 3772,
  "\u2581ukuza": 3773,
  "zu": 3774,
  "\u2581Information": 3775,
  "\u2581explain": 3776,
  "\u2581noodade": 3777,
  "\u2581sihlale": 3778,
  "\u2581Waba": 3779,
  "\u2581contrast": 3780,
  "\u2581entered": 3781,
  "\u2581ndithi": 3782,
  "\u2581string": 3783,
  "wenza": 3784,
  "\u2581ibhinqa": 3785,
  "ntetho": 3786,
  "\u2581becomes": 3787,
  "\u2581dedicated": 3788,
  "Stock": 3789,
  "bhalwa": 3790,
  "sabela": 3791,
  "tyhila": 3792,
  "\u2581Paradise": 3793,
  "boniswa": 3794,
  "khwele": 3795,
  "\u2581desires": 3796,
  "phathwa": 3797,
  "\u2581Imibhalo": 3798,
  "\u2581elandelayo": 3799,
  "\u2581method": 3800,
  "\u2581homes": 3801,
  "\u2581document": 3802,
  "\u2581esenza": 3803,
  "\u2581ngomnye": 3804,
  "dini": 3805,
  "\u2581greatly": 3806,
  "\u2581suffered": 3807,
  "\u2581uKumkani": 3808,
  "\u2581umlinganiselo": 3809,
  "leli": 3810,
  "line": 3811,
  "\u2581bendi": 3812,
  "\u2581enemy": 3813,
  "\u2581limited": 3814,
  "\u2581entolongweni": 3815,
  "\u2581kufika": 3816,
  "\u258142": 3817,
  "\u2581wawo": 3818,
  "fumane": 3819,
  "ngamashumi": 3820,
  "tor": 3821,
  "\u2581north": 3822,
  "\u2581yeyona": 3823,
  "khala": 3824,
  "xolela": 3825,
  "\u2581Unga": 3826,
  "\u2581bani": 3827,
  "\u2581car": 3828,
  "\u2581emi": 3829,
  "\u2581sacred": 3830,
  "khulisa": 3831,
  "sta": 3832,
  "\u2581visited": 3833,
  "\u2581ilungelo": 3834,
  "This": 3835,
  "kele": 3836,
  "ngqina": 3837,
  "qi": 3838,
  "semva": 3839,
  "20": 3840,
  "\u258110]": 3841,
  "\u2581beli": 3842,
  "\u2581ezilishumi": 3843,
  "\u2581uM": 3844,
  "\u2581equipment": 3845,
  "\u2581System": 3846,
  "\u2581deeply": 3847,
  "\u2581usebenzisa": 3848,
  "espite": 3849,
  "\u2581Window": 3850,
  "\u2581reasonable": 3851,
  "all": 3852,
  "phatha": 3853,
  "\u2581ikho": 3854,
  "\u2581kangange": 3855,
  "\u2581ngokwakhe": 3856,
  "fundisisa": 3857,
  "thengisa": 3858,
  "\u2581iintlobo": 3859,
  "\u2581stress": 3860,
  "\u2581imiphumo": 3861,
  "\u2581inyama": 3862,
  "langa": 3863,
  "tshe": 3864,
  "\u2581ngokwaneleyo": 3865,
  "\u2581Ukwenza": 3866,
  "\u2581Version": 3867,
  "\u2581purposes": 3868,
  "\u2581across": 3869,
  "\u2581ukunceda": 3870,
  "\u2581moving": 3871,
  "\u2581Times": 3872,
  "\u2581Ukanti": 3873,
  "\u2581lies": 3874,
  "\u2581mountains": 3875,
  "\u2581olwalu": 3876,
  "\u2581cost": 3877,
  "\u2581mnye": 3878,
  "\u2581saith": 3879,
  "\u2581umama": 3880,
  "\u2581wakha": 3881,
  "nyusa": 3882,
  "\u2581ezimbi": 3883,
  "ING": 3884,
  "moya": 3885,
  "qo": 3886,
  "\u258128,": 3887,
  "\u2581button": 3888,
  "\u2581seemed": 3889,
  "ting": 3890,
  "\u258143": 3891,
  "+": 3892,
  "\u2581finally": 3893,
  "\u2581uMdali": 3894,
  "land": 3895,
  "mpahla": 3896,
  "\u2581sacrifices": 3897,
  "\u258115]": 3898,
  "\u2581opening": 3899,
  "\u2581uninzi": 3900,
  "ncokola": 3901,
  "xhomekeke": 3902,
  "\u2581@": 3903,
  "\u2581articles": 3904,
  "\u2581encinane": 3905,
  "\u2581esemazantsi": 3906,
  "\u2581rise": 3907,
  "ted": 3908,
  "\u2581kwilizwe": 3909,
  "\u2581oluthile": 3910,
  "\u2581sort": 3911,
  "balisa": 3912,
  "\u258130.": 3913,
  "\u258148": 3914,
  "\u2581British": 3915,
  "\u2581baby": 3916,
  "\u2581elu": 3917,
  "\u2581town": 3918,
  "\u2581zesini": 3919,
  "\u2581animal": 3920,
  "\u2581siba": 3921,
  "pro": 3922,
  "\u258126.": 3923,
  "\u2581behalf": 3924,
  "\u2581courage": 3925,
  "\u2581seeing": 3926,
  "\u2581ngokubanzi": 3927,
  "\u2581nomntu": 3928,
  "mitha": 3929,
  "\u2581()": 3930,
  "xelisa": 3931,
  "\u2581esiya": 3932,
  "\u2581moves": 3933,
  "\u2581reached": 3934,
  "sithi": 3935,
  "thile": 3936,
  "\u2581Well": 3937,
  "\u2581associated": 3938,
  "\u2581note": 3939,
  "\u2581sabo": 3940,
  "Le": 3941,
  "\u2581Abaninzi": 3942,
  "\u2581kuluhlu": 3943,
  "-_": 3944,
  "bonwa": 3945,
  "\u2581kwenziwe": 3946,
  "menza": 3947,
  "\u2581Co": 3948,
  "\u2581NW": 3949,
  "\u2581Through": 3950,
  "\u2581bexesha": 3951,
  "\u2581ukubonisa": 3952,
  "com": 3953,
  "yisa": 3954,
  "\u2581calendar": 3955,
  "\u2581imperfect": 3956,
  "\u2581lingu": 3957,
  "\u2581occurred": 3958,
  "\u258141": 3959,
  "\u2581kwamanye": 3960,
  "\u2581leading": 3961,
  "\u2581siyi": 3962,
  "\u2581Pharaoh": 3963,
  "\u2581wabonisa": 3964,
  "\u2581authorities": 3965,
  "\u2581cry": 3966,
  "\u2581fish": 3967,
  "\u2581iimvakalelo": 3968,
  "\u2581military": 3969,
  "\u2581engena": 3970,
  "\u2581guard": 3971,
  "\u2581kummandla": 3972,
  "et": 3973,
  "\u2581Work": 3974,
  "\u2581akuyi": 3975,
  "\u2581hull": 3976,
  "\u2581ukum": 3977,
  "\u2581City": 3978,
  "\u2581kwinqanawa": 3979,
  "ju": 3980,
  "ngaku": 3981,
  "\u2581bamele": 3982,
  "Wa": 3983,
  "\u2581despite": 3984,
  "Asia": 3985,
  "que": 3986,
  "\u2581emihle": 3987,
  "\u2581kwiphepha": 3988,
  "\u2581okwenyaniso": 3989,
  "\u2581wasi": 3990,
  "ad": 3991,
  "\u2581wabona": 3992,
  "khwe": 3993,
  "\u25814;": 3994,
  "\u2581generation": 3995,
  "philisa": 3996,
  "tan": 3997,
  "yingozi": 3998,
  "\u2581mkhulu": 3999,
  "\u2581inxalenye": 4000,
  "\u2581izigidi": 4001,
  "\u2581okokuba": 4002,
  "\u2581uSawule": 4003,
  "\u2581weeks": 4004,
  "out": 4005,
  "sondele": 4006,
  "\u2581Default": 4007,
  "\u2581efuna": 4008,
  "\u2581koonyana": 4009,
  "\u2581kuno": 4010,
  "\u2581namaNgqina": 4011,
  "\u2581Apho": 4012,
  "\u2581isifo": 4013,
  "\u2581ulonwabo": 4014,
  "\u2581Mo": 4015,
  "\u2581extreme": 4016,
  "\u2581persecution": 4017,
  "onyana": 4018,
  "\u2581character": 4019,
  "\u2581dangerous": 4020,
  "\u2581encouragement": 4021,
  "\u2581zokuba": 4022,
  "\u258155": 4023,
  "\u2581teacher": 4024,
  "\u2581aware": 4025,
  "\u2581ezintandathu": 4026,
  "\u2581missionaries": 4027,
  "\u2581umthwalo": 4028,
  "beke": 4029,
  "nyawo": 4030,
  "\u2581Day": 4031,
  "Lu": 4032,
  "\u2581amathuba": 4033,
  "\u2581afanele": 4034,
  "qwalasela": 4035,
  "\u2581escape": 4036,
  "\u2581undi": 4037,
  "\u2581Ingxelo": 4038,
  "\u2581connection": 4039,
  "\u2581model": 4040,
  "shumi": 4041,
  "zimisele": 4042,
  "\u2581buhlungu": 4043,
  "\u2581observe": 4044,
  "\u2581tye": 4045,
  "-1": 4046,
  "ant": 4047,
  "hambo": 4048,
  "ndo": 4049,
  "\u2581KU": 4050,
  "\u2581lwee": 4051,
  "IN": 4052,
  "PH": 4053,
  "\u2581accounts": 4054,
  "\u2581ithile": 4055,
  "Musani": 4056,
  "\u2581Lowo": 4057,
  "\u2581factors": 4058,
  "DIS": 4059,
  "ndawo": 4060,
  "\u258127.": 4061,
  "\u2581embi": 4062,
  "\u2581umphumo": 4063,
  "benza": 4064,
  "bulawa": 4065,
  "\u2581kuzi": 4066,
  "khuselekileyo": 4067,
  "\u2581Canada": 4068,
  "\u2581dialog": 4069,
  "\u2581guns": 4070,
  "\u2581mayi": 4071,
  "\u2581continues": 4072,
  "\u2581growing": 4073,
  "\u2581oluchanileyo": 4074,
  "\u2581umhla": 4075,
  "\u2581Delete": 4076,
  "\u2581Elijah": 4077,
  "\u2581Okokuqala": 4078,
  "\u2581attack": 4079,
  "\u2581ngelixa": 4080,
  "\u2581options": 4081,
  "password": 4082,
  "\u2581rain": 4083,
  "men": 4084,
  "thandazela": 4085,
  "\u2581eating": 4086,
  "\u2581kwezinto": 4087,
  "\u2581ngenye": 4088,
  "buthathaka": 4089,
  "\u2581ndo": 4090,
  "thabathe": 4091,
  "\u2581ebusuku": 4092,
  "\u2581intombi": 4093,
  "\u2581nakuba": 4094,
  "\u2581affected": 4095,
  "\u2581eno": 4096,
  "\u2581liye": 4097,
  "\u2581ngenjongo": 4098,
  "\u2581nom": 4099,
  "\u2581Khumbula": 4100,
  "yinxalenye": 4101,
  "\u2581namanye": 4102,
  "\u2581zalo": 4103,
  "\u2581Akunjalo": 4104,
  "\u2581emithathu": 4105,
  "\u2581kaDavide": 4106,
  "\u2581Inc": 4107,
  "\u2581company": 4108,
  "\u2581kwenqanawa": 4109,
  "\u2581likaYesu": 4110,
  "\u2581madoda": 4111,
  "\u2581referred": 4112,
  "Comment": 4113,
  "\u2581foot": 4114,
  "\u2581kukwazi": 4115,
  "zuza": 4116,
  "\u2581ngum": 4117,
  "\u2581Family": 4118,
  "\u2581occur": 4119,
  "nokubangela": 4120,
  "siba": 4121,
  "NI": 4122,
  "\u2581remained": 4123,
  "miselwa": 4124,
  "njengo": 4125,
  "\u2581Was": 4126,
  "\u2581elungileyo": 4127,
  "\u2581guide": 4128,
  "\u2581race": 4129,
  "\u2581endleleni": 4130,
  "\u2581issues": 4131,
  "\u2581lokwenene": 4132,
  "\u2581minyaka": 4133,
  "\u2581rate": 4134,
  "\u2581zase": 4135,
  "beni": 4136,
  "lumkisa": 4137,
  "ntliziyo": 4138,
  "\u2581affection": 4139,
  "\u2581involves": 4140,
  "\u2581Bathi": 4141,
  "\u2581displayed": 4142,
  "\u2581lwabantu": 4143,
  "NG": 4144,
  "\u2581dedication": 4145,
  "\u2581iron": 4146,
  "hlangula": 4147,
  "\u2581ziza": 4148,
  "\u2581imiyalelo": 4149,
  "\u2581wee": 4150,
  "\u2581yale": 4151,
  "\u2581Kanye": 4152,
  "\u2581valid": 4153,
  "je": 4154,
  "\u2581abathembekileyo": 4155,
  "\u2581TO": 4156,
  "\u2581Uze": 4157,
  "\u2581stone": 4158,
  "\u2581Encyclopedia": 4159,
  "\u2581Kule": 4160,
  "\u2581abathile": 4161,
  "\u2581cope": 4162,
  "\u2581kokufa": 4163,
  "\u2581wafa": 4164,
  "em": 4165,
  "ncedisa": 4166,
  "rt": 4167,
  "\u2581amane": 4168,
  "\u2581nento": 4169,
  "\u2581kade": 4170,
  "for": 4171,
  "ster": 4172,
  "\u2581completed": 4173,
  "\u2581height": 4174,
  "\u2581impilo": 4175,
  "\u2581kwinkqubo": 4176,
  "\u2581reflect": 4177,
  "\u2581existence": 4178,
  "\u2581secret": 4179,
  "thenga": 4180,
  "\u2581Clearly": 4181,
  "\u2581Once": 4182,
  "\u2581kweso": 4183,
  "\u2581appeared": 4184,
  "\u2581iyi": 4185,
  "\u2581practices": 4186,
  "\u2581specified": 4187,
  "gama": 4188,
  "mnye": 4189,
  "\u2581Ca": 4190,
  "\u2581engu": 4191,
  "\u2581overcome": 4192,
  "\u2581uphawu": 4193,
  "00": 4194,
  "gqalwa": 4195,
  "pp": 4196,
  "\u2581Umzekelo": 4197,
  "\u2581forms": 4198,
  "\u2581inheritance": 4199,
  "\u2581nzulu": 4200,
  "\u2581formed": 4201,
  "\u2581prepare": 4202,
  "50": 4203,
  "What": 4204,
  "bandezeleka": 4205,
  "\u2581March": 4206,
  "\u2581discuss": 4207,
  "\u2581master": 4208,
  "\u2581refused": 4209,
  "\u2581status": 4210,
  "\u2581Type": 4211,
  "\u2581exists": 4212,
  "ngaphandle": 4213,
  "zeka": 4214,
  "\u2581appearance": 4215,
  "\u2581lose": 4216,
  "\u2581remains": 4217,
  "\u2581sifuna": 4218,
  "\u2581title": 4219,
  "\u2581faced": 4220,
  "\u2581oba": 4221,
  "\u2581KDE": 4222,
  "\u2581function": 4223,
  "\u2581lwaba": 4224,
  "\u2581saza": 4225,
  "\u2581uYobhi": 4226,
  "So": 4227,
  "mntu": 4228,
  "\u2581arrangement": 4229,
  "\u2581genuine": 4230,
  "\u2581nawuphi": 4231,
  "\u2581umbhali": 4232,
  "\u2581wall": 4233,
  "\u2581wanikela": 4234,
  "mbe": 4235,
  "\u2581drug": 4236,
  "\u2581sethu": 4237,
  "\u2581sifunda": 4238,
  "\u2581uthetha": 4239,
  "tion": 4240,
  "\u2581kuYesu": 4241,
  "\u2581population": 4242,
  "ID": 4243,
  "bangele": 4244,
  "hlangabezana": 4245,
  "kela": 4246,
  "\u2581realized": 4247,
  "kunye": 4248,
  "\u2581Eliqhelekileyo": 4249,
  "\u2581Game": 4250,
  "\u2581iintsapho": 4251,
  "\u2581sifo": 4252,
  "ac": 4253,
  "\u258125]": 4254,
  "\u2581harm": 4255,
  "\u2581unity": 4256,
  "\u2581unyango": 4257,
  "qh": 4258,
  "thabathela": 4259,
  "\u2581ukusetyenziswa": 4260,
  "ill": 4261,
  "\u2581ezibalulekileyo": 4262,
  "\u2581overseer": 4263,
  "jo": 4264,
  "\u2581eternal": 4265,
  "\u2581menu": 4266,
  "\u2581sit": 4267,
  "\u2581Act": 4268,
  "\u2581abasebenzi": 4269,
  "\u2581experiences": 4270,
  "\u2581negative": 4271,
  "\u2581ninga": 4272,
  "\u2581nolu": 4273,
  "\u2581sisi": 4274,
  "\u2581teachers": 4275,
  "\u2581Ezekiel": 4276,
  "\u2581ekufeni": 4277,
  "\u2581treat": 4278,
  "Co": 4279,
  "lungileyo": 4280,
  "\u2581claim": 4281,
  "\u2581require": 4282,
  "\u2581ekwaku": 4283,
  "\u2581participants": 4284,
  "\u2581peoples": 4285,
  "\u2581agree": 4286,
  "\u2581direct": 4287,
  "\u2581ngentliziyo": 4288,
  "\u2581presented": 4289,
  "\u2581trouble": 4290,
  "veni": 4291,
  "\u2581fill": 4292,
  "miselwe": 4293,
  "xubusha": 4294,
  "\u2581Translation": 4295,
  "\u2581asking": 4296,
  "\u2581esinoku": 4297,
  "\u2581kufumana": 4298,
  "lapho": 4299,
  "\u2581ended": 4300,
  "\u2581upper": 4301,
  "NA": 4302,
  "\u2581Yesu": 4303,
  "\u2581acceptable": 4304,
  "wela": 4305,
  "\u2581dry": 4306,
  "\u2581forces": 4307,
  "Go": 4308,
  "\u2581Ngoba": 4309,
  "\u2581engaphezu": 4310,
  "zibona": 4311,
  "\u2581international": 4312,
  "\u2581luye": 4313,
  "\u2581panel": 4314,
  "\u2581umlilo": 4315,
  "\u2581lenqanawa": 4316,
  "\u2581publications": 4317,
  "New": 4318,
  "ndu": 4319,
  "\u2581UKU": 4320,
  "\u2581elifanelekileyo": 4321,
  "\u2581iimfundiso": 4322,
  "\u2581yekhompyutha": 4323,
  "GNOME": 4324,
  "\u2581Amanye": 4325,
  "\u2581road": 4326,
  "\u2581ubuso": 4327,
  "\u2581Under": 4328,
  "\u2581kula": 4329,
  "\u2581ngeli": 4330,
  "\u2581throne": 4331,
  "buhlungu": 4332,
  "\u258133.": 4333,
  "\u2581Its": 4334,
  "\u2581ani": 4335,
  "\u2581wood": 4336,
  "kwishumi": 4337,
  "\u2581kufutshane": 4338,
  "\u2581resurrected": 4339,
  "khokela": 4340,
  "londoloza": 4341,
  "\u2581commandments": 4342,
  "\u2581wemikhosi": 4343,
  "cho": 4344,
  "sezantsi": 4345,
  "ial": 4346,
  "\u2581foreign": 4347,
  "ate": 4348,
  "\u2581France": 4349,
  "\u2581zombini": 4350,
  "bongoza": 4351,
  "\u2581French": 4352,
  "\u2581directly": 4353,
  "\u2581othe": 4354,
  "\u2581standard": 4355,
  "\u2581types": 4356,
  "bhaptizwa": 4357,
  "nxalenye": 4358,
  "\u2581delight": 4359,
  "\u2581indicate": 4360,
  "\u2581ngesandla": 4361,
  "\u2581German": 4362,
  "\u2581uBawo": 4363,
  "didi": 4364,
  "\u2581kusenokuba": 4365,
  "\u2581ukunikela": 4366,
  "\u2581Elinye": 4367,
  "\u2581ngento": 4368,
  "\u2581Njenge": 4369,
  "\u2581appears": 4370,
  "\u2581drawn": 4371,
  "\u2581energy": 4372,
  "\u2581iqhosha": 4373,
  "silela": 4374,
  "\u2581board": 4375,
  "\u2581conclusion": 4376,
  "\u2581closer": 4377,
  "\u2581publishers": 4378,
  "bulela": 4379,
  "\u258114;": 4380,
  "\u2581elishumi": 4381,
  "\u2581produced": 4382,
  "\u2581umphathi": 4383,
  "\u2581wide": 4384,
  "nazo": 4385,
  "\u2581examine": 4386,
  "\u2581recognize": 4387,
  "0": 4388,
  "\u25815;": 4389,
  "\u2581GNOME": 4390,
  "\u2581custom": 4391,
  "\u2581essential": 4392,
  "\u2581ezibini": 4393,
  "\u2581goals": 4394,
  "\u2581god": 4395,
  "\u2581kolu": 4396,
  "\u2581neengxaki": 4397,
  "\u2581statement": 4398,
  "\u2581ukho": 4399,
  "mile": 4400,
  "\u2581kabini": 4401,
  "\u2581pre": 4402,
  "\u2581yezi": 4403,
  "\u2581consequences": 4404,
  "\u2581esebenzisa": 4405,
  "sho": 4406,
  "\u2581International": 4407,
  "\u2581State": 4408,
  "\u2581kukwenza": 4409,
  "\u2581wali": 4410,
  "\u2581zikaYehova": 4411,
  "\u2581removed": 4412,
  "\u2581umkhosi": 4413,
  "18": 4414,
  "bekwe": 4415,
  "cima": 4416,
  "\u2581ezigidi": 4417,
  "\u2581helpful": 4418,
  "\u2581info": 4419,
  "\u2581Aaron": 4420,
  "\u2581Ulwazi": 4421,
  "\u2581attended": 4422,
  "\u2581lobuxoki": 4423,
  "\u2581rules": 4424,
  "\u2581sesi": 4425,
  "ngeni": 4426,
  "\u258135.": 4427,
  "\u2581ends": 4428,
  "\u2581izifundo": 4429,
  "\u2581lobomi": 4430,
  "\u2581nale": 4431,
  "\u2581universe": 4432,
  "\u2581warned": 4433,
  "tra": 4434,
  "\u2581border": 4435,
  "\u2581kona": 4436,
  "\u2581unique": 4437,
  "\u2581zithi": 4438,
  "Se": 4439,
  "\u2581PAGE": 4440,
  "\u2581ndim": 4441,
  "All": 4442,
  "\u2581Philippians": 4443,
  "\u2581kukunceda": 4444,
  "\u2581ndinga": 4445,
  "hlola": 4446,
  "\u2581Andi": 4447,
  "\u2581lube": 4448,
  "\u2581powers": 4449,
  "bakhonzi": 4450,
  "ziphatha": 4451,
  "\u2581Finally": 4452,
  "\u2581anoku": 4453,
  "\u2581description": 4454,
  "\u2581growth": 4455,
  "\u2581merely": 4456,
  "\u2581pattern": 4457,
  "\u2581reward": 4458,
  "\u2581uA": 4459,
  "zaliseka": 4460,
  "\u2581divorce": 4461,
  "\u2581isiqhamo": 4462,
  "\u2581thereof": 4463,
  "\u2581umyeni": 4464,
  "\u2581UDavide": 4465,
  "\u2581putt": 4466,
  "De": 4467,
  "hlaselwa": 4468,
  "\u2581Australia": 4469,
  "nka": 4470,
  "\u2581ebangela": 4471,
  "\u2581wamaNgqina": 4472,
  "kubona": 4473,
  "\u2581gifts": 4474,
  "\u2581noYesu": 4475,
  "\u2581viewed": 4476,
  "\u2581Message": 4477,
  "\u2581hearing": 4478,
  "khuphe": 4479,
  "\u2581Susa": 4480,
  "\u2581Note": 4481,
  "\u2581UN": 4482,
  "\u2581research": 4483,
  "000": 4484,
  "mlinganiselo": 4485,
  "\u2581Entsha": 4486,
  "\u2581amayeza": 4487,
  "\u2581busy": 4488,
  "\u2581preached": 4489,
  "\u2581ruler": 4490,
  "\u258117]": 4491,
  "\u2581siku": 4492,
  "\u2581uIsaya": 4493,
  "\u2581weza": 4494,
  "liphi": 4495,
  "mini": 4496,
  "nike": 4497,
  "sikelela": 4498,
  "\u2581Con": 4499,
  "\u2581East": 4500,
  "\u2581Page": 4501,
  "khululekileyo": 4502,
  "qale": 4503,
  "\u2581forgive": 4504,
  "jikeleza": 4505,
  "tro": 4506,
  "\u2581careful": 4507,
  "\u2581mabini": 4508,
  "\u2581section": 4509,
  "khululwa": 4510,
  "\u2581ark": 4511,
  "\u2581carrying": 4512,
  "dolophu": 4513,
  "\u2581Aka": 4514,
  "\u2581requirements": 4515,
  "\u2581sixeko": 4516,
  "When": 4517,
  "pu": 4518,
  "\u2581perform": 4519,
  "\u2581alcohol": 4520,
  "\u2581ensure": 4521,
  "\u2581recently": 4522,
  "aba": 4523,
  "\u2581illustration": 4524,
  "\u2581kanti": 4525,
  "\u2581kwinto": 4526,
  "vuka": 4527,
  "\u2581esifanele": 4528,
  "\u2581ezincinane": 4529,
  "\u2581grew": 4530,
  "\u2581kubangela": 4531,
  "\u2581pioneers": 4532,
  "io": 4533,
  "nzi": 4534,
  "\u2581Every": 4535,
  "\u2581ekufuneka": 4536,
  "\u2581ngokwesini": 4537,
  "\u2581sikaThixo": 4538,
  "gcinwa": 4539,
  "\u2581advantage": 4540,
  "\u2581kukaYehova": 4541,
  "\u2581transport": 4542,
  "nomdla": 4543,
  "\u2581nezo": 4544,
  "\u2581ngasentla": 4545,
  "\u2581nomoya": 4546,
  "\u2581writer": 4547,
  "ngaphakathi": 4548,
  "\u258110;": 4549,
  "\u2581distress": 4550,
  "\u2581nobomi": 4551,
  "\u2581ubukhulu": 4552,
  "\u2581umnqophiso": 4553,
  "\u2581(3)": 4554,
  "\u2581Nations": 4555,
  "\u2581kangangoko": 4556,
  "\u2581stopped": 4557,
  "/%": 4558,
  "kuqonda": 4559,
  "zixhobo": 4560,
  "\u2581Ecclesiastes": 4561,
  "\u2581News": 4562,
  "\u2581Stock": 4563,
  "\u2581shortcut": 4564,
  "\u2581struck": 4565,
  "\u2581yexesha": 4566,
  "\u2581ezantsi": 4567,
  "ron": 4568,
  "suke": 4569,
  "\u2581bearing": 4570,
  "\u2581lama": 4571,
  "\u2581uvimba": 4572,
  "\u2581wrath": 4573,
  "nyama": 4574,
  "oli": 4575,
  "\u2581ukukhonza": 4576,
  "like": 4577,
  "\u2581kumgangatho": 4578,
  "\u2581promote": 4579,
  "\u2581usukelo": 4580,
  "khutshwa": 4581,
  "waxelela": 4582,
  "\u2581amabandla": 4583,
  "\u2581athanjisiweyo": 4584,
  "\u2581committed": 4585,
  "\u2581communication": 4586,
  "\u2581iintsuku": 4587,
  "\u2581kwibandla": 4588,
  "\u2581sibone": 4589,
  "\u2581situations": 4590,
  "\u2581visible": 4591,
  "\u2581wasezulwini": 4592,
  "phezulu": 4593,
  "tshata": 4594,
  "\u2581co": 4595,
  "\u2581Health": 4596,
  "\u2581association": 4597,
  "\u2581slow": 4598,
  "\u2581successful": 4599,
  "qiqa": 4600,
  "\u2581Cinga": 4601,
  "\u2581Japan": 4602,
  "\u2581abazange": 4603,
  "\u2581enokuba": 4604,
  "\u2581ngamanye": 4605,
  "\u2581separate": 4606,
  "\u258116;": 4607,
  "\u2581imithandazo": 4608,
  "\u2581izilwanyana": 4609,
  "\u2581opposition": 4610,
  "\u2581verse": 4611,
  "YO": 4612,
  "guqula": 4613,
  "\u2581Unoku": 4614,
  "\u2581layer": 4615,
  "\u2581notice": 4616,
  "\u2581shepherd": 4617,
  "\u2581umahluko": 4618,
  "Ye": 4619,
  "\u2581Blur": 4620,
  "\u2581global": 4621,
  "\u2581iintsikelelo": 4622,
  "\u2581kancinane": 4623,
  "\u2581kusetyenziswa": 4624,
  "\u2581listed": 4625,
  "\u2581range": 4626,
  "\u2581urged": 4627,
  "\u2581ahlale": 4628,
  "\u2581kutsho": 4629,
  "\u2581turning": 4630,
  "\u2581April": 4631,
  "\u2581athe": 4632,
  "\u2581umvuzo": 4633,
  "gcine": 4634,
  "mpa": 4635,
  "yiqonda": 4636,
  "\u2581Unknown": 4637,
  "\u2581site": 4638,
  "\u2581ukucinga": 4639,
  "LO": 4640,
  "\u2581Change": 4641,
  "\u2581Koloni": 4642,
  "\u2581kaMoses": 4643,
  "\u2581ngenkulungwane": 4644,
  "\u2581sayo": 4645,
  "\u2581sharing": 4646,
  "\u2581wandi": 4647,
  "\u2581ibalulekileyo": 4648,
  "\u2581red": 4649,
  "khethe": 4650,
  "nene": 4651,
  "siwe": 4652,
  "\u2581akunjalo": 4653,
  "\u2581hundreds": 4654,
  "\u2581isiphelo": 4655,
  "eni": 4656,
  "\u2581emzimbeni": 4657,
  "\u2581relatives": 4658,
  "\u2581truths": 4659,
  "khi": 4660,
  "xesha": 4661,
  "\u2581Ha": 4662,
  "\u2581Testament": 4663,
  "\u2581ngukumkani": 4664,
  "\u2581safety": 4665,
  "\u258118]": 4666,
  "\u2581DO": 4667,
  "\u2581mgama": 4668,
  "\u2581zinoku": 4669,
  "ff": 4670,
  "kulungele": 4671,
  "\u2581Lwa": 4672,
  "\u2581covered": 4673,
  "\u2581liza": 4674,
  "\u2581okwa": 4675,
  "kude": 4676,
  "\u2581Pharisees": 4677,
  "\u2581ndiza": 4678,
  "\u2581popular": 4679,
  "liswa": 4680,
  "\u2581kukuthi": 4681,
  "by": 4682,
  "\u2581assembly": 4683,
  "\u2581eba": 4684,
  "\u2581enable": 4685,
  "\u2581umbala": 4686,
  "\u2581worth": 4687,
  "sikolo": 4688,
  "\u2581Omkhulu": 4689,
  "\u2581publication": 4690,
  "nawo": 4691,
  "\u2581ngala": 4692,
  "\u2581selection": 4693,
  "\u2581valuable": 4694,
  "ngenisa": 4695,
  "\u2581Really": 4696,
  "\u2581iinkqubo": 4697,
  "\u2581iqabane": 4698,
  "\u2581kudla": 4699,
  "\u2581larger": 4700,
  "\u2581wars": 4701,
  "\u2581windows": 4702,
  "Cawa": 4703,
  "sengqiqweni": 4704,
  "\u2581adds": 4705,
  "\u2581olutsha": 4706,
  "\u2581violent": 4707,
  "\u2581warm": 4708,
  "\u2581Isaac": 4709,
  "\u2581Uninzi": 4710,
  "\u2581join": 4711,
  "\u2581male": 4712,
  "dlulisela": 4713,
  "ia": 4714,
  "ig": 4715,
  "ist": 4716,
  "leka": 4717,
  "\u2581element": 4718,
  "\u2581increasing": 4719,
  "\u2581suku": 4720,
  "phelisa": 4721,
  "\u2581KaYehova": 4722,
  "\u2581lwawo": 4723,
  "data": 4724,
  "nxaxheba": 4725,
  "\u2581ine": 4726,
  "\u2581joined": 4727,
  "\u2581bafumane": 4728,
  "\u2581drinking": 4729,
  "\u2581hast": 4730,
  "\u2581kunqulo": 4731,
  "\u2581ubuchule": 4732,
  "\u2581ukushumayela": 4733,
  "\u2581uses": 4734,
  "There": 4735,
  "lungiselelo": 4736,
  "phumeza": 4737,
  "thethwa": 4738,
  "\u2581Uphawu": 4739,
  "\u2581lying": 4740,
  "vumele": 4741,
  "\u2581Isixhobo": 4742,
  "\u2581directory": 4743,
  "\u2581emazulwini": 4744,
  "\u2581ngobomi": 4745,
  "\u2581art": 4746,
  "bambe": 4747,
  "mangalisayo": 4748,
  "yintoni": 4749,
  "\u2581Among": 4750,
  "\u2581abaya": 4751,
  "\u2581indima": 4752,
  "\u2581noEva": 4753,
  "\u2581river": 4754,
  "\u2581udade": 4755,
  "tab": 4756,
  "\u258146": 4757,
  "\u2581blind": 4758,
  "\u2581cancer": 4759,
  "\u2581village": 4760,
  "\u2581Sifanele": 4761,
  "\u2581Yonke": 4762,
  "\u2581tribe": 4763,
  "nxibe": 4764,
  "phulaphule": 4765,
  "thande": 4766,
  "\u2581oyinyaniso": 4767,
  "\u2581talking": 4768,
  "\u2581Help": 4769,
  "\u2581Ngayo": 4770,
  "\u2581Nkosi": 4771,
  "\u2581Umoya": 4772,
  "\u2581attending": 4773,
  "\u2581ngegama": 4774,
  "\u2581personally": 4775,
  "\u2581cultivate": 4776,
  "\u2581elderly": 4777,
  "\u2581performance": 4778,
  "\u2581pleasure": 4779,
  "\u2581umzi": 4780,
  "\u2581bringing": 4781,
  "\u2581difference": 4782,
  "\u2581houses": 4783,
  "nethemba": 4784,
  "\u2581basi": 4785,
  "\u2581compassion": 4786,
  "\u2581additional": 4787,
  "\u2581icebiso": 4788,
  "\u2581ndiba": 4789,
  "\u2581tons": 4790,
  "\u2581utshintsho": 4791,
  "kweni": 4792,
  "\u2581300": 4793,
  "\u2581construction": 4794,
  "\u2581imagine": 4795,
  "res": 4796,
  "thathe": 4797,
  "zibuza": 4798,
  "\u2581Aye": 4799,
  "\u2581kumntu": 4800,
  "\u2581kwale": 4801,
  "\u2581meal": 4802,
  "\u2581okwe": 4803,
  "hambisa": 4804,
  "\u2581sought": 4805,
  "\u2581translated": 4806,
  "\u2581yenziwe": 4807,
  "\u2581esiza": 4808,
  "\u2581garden": 4809,
  "\u2581namadoda": 4810,
  "\u2581yenye": 4811,
  "\u2581abane": 4812,
  "\u2581azo": 4813,
  "\u2581manzi": 4814,
  "\u2581uyazi": 4815,
  "\u2581wickedness": 4816,
  "xolo": 4817,
  "\u2581>": 4818,
  "\u2581Body": 4819,
  "\u2581count": 4820,
  "\u2581entsapho": 4821,
  "\u2581kufanele": 4822,
  "\u2581ngalunye": 4823,
  "\u2581systems": 4824,
  "\u2581table": 4825,
  "\u2581ubutyebi": 4826,
  "linde": 4827,
  "zwa": 4828,
  "\u2581amele": 4829,
  "\u2581isikhephe": 4830,
  "\u2581lesson": 4831,
  "nikezela": 4832,
  "ntsontelo": 4833,
  "sukela": 4834,
  "\u2581Ifayili": 4835,
  "\u2581session": 4836,
  "\u2581umbingeleli": 4837,
  "phulukana": 4838,
  "\u2581kudala": 4839,
  "\u2581ngothando": 4840,
  "\u2581ukukhanya": 4841,
  "\u2581amanyathelo": 4842,
  "\u2581eyoku": 4843,
  "ndla": 4844,
  "\u2581desktop": 4845,
  "\u2581kuthekani": 4846,
  "\u2581station": 4847,
  "\u2581turns": 4848,
  "khumbule": 4849,
  "\u2581Khawucinge": 4850,
  "\u2581impendulo": 4851,
  "hlolisisa": 4852,
  "\u2581aside": 4853,
  "\u2581bodies": 4854,
  "\u2581maba": 4855,
  "\u2581nangoko": 4856,
  "\u2581religions": 4857,
  "funde": 4858,
  "\u2581skin": 4859,
  "\u2581ucinga": 4860,
  "\u2581une": 4861,
  "\u2581bawa": 4862,
  "\u2581bless": 4863,
  "\u2581root": 4864,
  "\u2581yomntu": 4865,
  "dalwa": 4866,
  "\u2581Inqanawa": 4867,
  "\u2581imfundiso": 4868,
  "\u2581intlungu": 4869,
  "bandakanya": 4870,
  "\u2581describes": 4871,
  "cy": 4872,
  "\u2581Comment": 4873,
  "\u2581alo": 4874,
  "\u2581previous": 4875,
  "\u2581south": 4876,
  "\u2581weefayili": 4877,
  "kufuphi": 4878,
  "\u2581Abaselula": 4879,
  "\u2581hate": 4880,
  "\u2581kufuphi": 4881,
  "\u2581lisithi": 4882,
  "\u2581obedience": 4883,
  "\u2581obedient": 4884,
  "\u2581umkhonzi": 4885,
  "\u2581victims": 4886,
  "lapha": 4887,
  "setyenziswe": 4888,
  "\u2581buy": 4889,
  "\u2581generally": 4890,
  "\u2581ilanga": 4891,
  "\u2581legal": 4892,
  "\u2581ngasinye": 4893,
  "SE": 4894,
  "\u25815]": 4895,
  "\u2581Isihloko": 4896,
  "\u2581convinced": 4897,
  "\u2581creatures": 4898,
  "ngaqhelekanga": 4899,
  "\u258112;": 4900,
  "\u2581Both": 4901,
  "\u2581wish": 4902,
  "file": 4903,
  "yimfuneko": 4904,
  "\u2581describe": 4905,
  "\u2581kunge": 4906,
  "\u2581ngawe": 4907,
  "\u2581ngobulumko": 4908,
  "\u2581ngokwenza": 4909,
  "\u2581yes": 4910,
  "LA": 4911,
  "sixhenxe": 4912,
  "\u2581Amazwi": 4913,
  "\u2581beBhayibhile": 4914,
  "\u2581nendawo": 4915,
  "\u2581ukunga": 4916,
  "ph": 4917,
  "\u2581letters": 4918,
  "\u2581secure": 4919,
  "\u2581unable": 4920,
  "sisi": 4921,
  "\u2581eyenza": 4922,
  "\u2581instruction": 4923,
  "\u2581poverty": 4924,
  "chu": 4925,
  "\u2581afumane": 4926,
  "\u2581belief": 4927,
  "\u2581details": 4928,
  "\u2581developing": 4929,
  "\u2581eminye": 4930,
  "\u2581opposite": 4931,
  "\u2581supply": 4932,
  "\u2581uzuko": 4933,
  "nisa": 4934,
  "\u2581nokufa": 4935,
  "ngaphantsi": 4936,
  "\u2581hurt": 4937,
  "Ni": 4938,
  "\u2581cell": 4939,
  "chi": 4940,
  "\u2581Has": 4941,
  "\u2581Out": 4942,
  "\u2581memory": 4943,
  "\u2581nabahlobo": 4944,
  "\u2581treated": 4945,
  "kunokukhethwa": 4946,
  "shu": 4947,
  "\u2581Sometimes": 4948,
  "\u2581sake": 4949,
  "\u2581umgudu": 4950,
  "\u2581Earth": 4951,
  "\u2581likewise": 4952,
  "\u2581ngokunzulu": 4953,
  "\u2581siqulathi": 4954,
  "\u2581Ekuqaleni": 4955,
  "\u2581inqaku": 4956,
  "\u2581nkqo": 4957,
  "\u2581numbers": 4958,
  "\u2581riches": 4959,
  "\u2581European": 4960,
  "\u2581abapostile": 4961,
  "\u2581configuration": 4962,
  "\u2581obe": 4963,
  "\u2581troubled": 4964,
  "40": 4965,
  "\u25813;": 4966,
  "\u2581Khawu": 4967,
  "\u2581wayethetha": 4968,
  "nxulumene": 4969,
  "qhagamshelanisi": 4970,
  "\u2581challenges": 4971,
  "\u2581except": 4972,
  "\u2581ngosuku": 4973,
  "\u2581ofuna": 4974,
  "mbutho": 4975,
  "vumelana": 4976,
  "\u258139": 4977,
  "\u2581Sisiphi": 4978,
  "Mo": 4979,
  "OR": 4980,
  "\u2581charge": 4981,
  "\u2581ekwi": 4982,
  "\u2581Ho": 4983,
  "\u2581raise": 4984,
  "\u2581uYosefu": 4985,
  "ceba": 4986,
  "nokwenza": 4987,
  "\u2581Injongo": 4988,
  "\u2581humility": 4989,
  "\u2581kwinqaku": 4990,
  "\u2581Table": 4991,
  "\u2581cross": 4992,
  "\u2581indicates": 4993,
  "Nda": 4994,
  "phawu": 4995,
  "\u2581Being": 4996,
  "\u2581Ngokuphathelele": 4997,
  "\u2581ukudla": 4998,
  "nandipha": 4999,
  "thandana": 5000,
  "\u2581Furthermore": 5001,
  "\u2581abangaphezu": 5002,
  "\u2581boats": 5003,
  "\u2581officers": 5004,
  "\u2581unless": 5005,
  "kuqala": 5006,
  "\u2581beloved": 5007,
  "\u2581quoted": 5008,
  "\u2581wild": 5009,
  "ated": 5010,
  "\u25816]": 5011,
  "\u2581IPHEPHA": 5012,
  "\u2581demons": 5013,
  "\u2581ongu": 5014,
  "\u2581ubonisa": 5015,
  "njengokuba": 5016,
  "\u258123,": 5017,
  "\u2581yamandulo": 5018,
  "\u2581Iimpawu": 5019,
  "\u2581Uthando": 5020,
  "\u2581trained": 5021,
  "kuhambeni": 5022,
  "\u2581bed": 5023,
  "\u2581burnt": 5024,
  "\u2581iinkcukacha": 5025,
  "\u2581inkulu": 5026,
  "fakwe": 5027,
  "zabalazela": 5028,
  "\u2581Mi": 5029,
  "\u2581uwu": 5030,
  "\u2581emangalisayo": 5031,
  "\u2581icon": 5032,
  "\u2581iinkonzo": 5033,
  "\u2581ise": 5034,
  "ntsimbi": 5035,
  "shiye": 5036,
  "yise": 5037,
  "\u2581apart": 5038,
  "\u2581discussion": 5039,
  "\u2581yiyo": 5040,
  "phenyane": 5041,
  "\u2581Close": 5042,
  "\u2581angle": 5043,
  "\u2581loyalty": 5044,
  "\u2581pursue": 5045,
  "tyelele": 5046,
  "\u2581disciple": 5047,
  "\u2581imbewu": 5048,
  "\u2581kuli": 5049,
  "\u2581umgca": 5050,
  "nokwenzeka": 5051,
  "sibini": 5052,
  "\u2581Without": 5053,
  "\u2581pieces": 5054,
  "\u2581rock": 5055,
  "\u2581reference": 5056,
  "\u2581Size": 5057,
  "\u2581abakhulu": 5058,
  "\u2581determine": 5059,
  "\u2581gate": 5060,
  "\u2581luncedo": 5061,
  "\u2581series": 5062,
  "\u2581ukuthini": 5063,
  "ngaphambi": 5064,
  "\u2581Mother": 5065,
  "\u2581West": 5066,
  "\u2581ngemini": 5067,
  "\u2581prophecies": 5068,
  "\u2581twenty": 5069,
  "qha": 5070,
  "\u2581imfuneko": 5071,
  "mifanekiso": 5072,
  "\u2581umlomo": 5073,
  "\u2581understood": 5074,
  "injini": 5075,
  "nci": 5076,
  "My": 5077,
  "\u2581endurance": 5078,
  "\u2581iYerusalem": 5079,
  "\u2581umda": 5080,
  "catshulweyo": 5081,
  "qalise": 5082,
  "\u2581Kwaye": 5083,
  "\u2581Yabona": 5084,
  "\u2581reality": 5085,
  "khathaliseki": 5086,
  "sayi": 5087,
  "\u2581Click": 5088,
  "\u2581ID": 5089,
  "\u2581Next": 5090,
  "\u2581kuyimfuneko": 5091,
  "\u2581multitude": 5092,
  "\u2581younger": 5093,
  "bukela": 5094,
  "guwuphi": 5095,
  "khusele": 5096,
  "zenzela": 5097,
  "\u258132.": 5098,
  "\u2581unina": 5099,
  "hlela": 5100,
  "mihla": 5101,
  "\u2581Edit": 5102,
  "\u2581discussed": 5103,
  "\u2581identified": 5104,
  "\u2581nabazalwana": 5105,
  "\u2581version": 5106,
  "\u2581won": 5107,
  "ham": 5108,
  "landelayo": 5109,
  "responsibilities": 5110,
  "\u2581badla": 5111,
  "\u2581cold": 5112,
  "\u2581conversation": 5113,
  "\u2581middle": 5114,
  "\u2581impossible": 5115,
  "\u2581paid": 5116,
  "lt": 5117,
  "\u2581Invalid": 5118,
  "\u2581abangendawo": 5119,
  "\u2581plant": 5120,
  "kayo": 5121,
  "\u2581fit": 5122,
  "imeyile": 5123,
  "kuthethwa": 5124,
  "nkosi": 5125,
  "sebenzela": 5126,
  "\u2581AND": 5127,
  "\u2581emlonyeni": 5128,
  "\u2581factor": 5129,
  "\u2581reveal": 5130,
  "\u2581umhlobo": 5131,
  "\u2581unclean": 5132,
  "\u2581Umyalezo": 5133,
  "\u2581content": 5134,
  "\u2581omzimba": 5135,
  "\u2581wahlala": 5136,
  "\u25812;": 5137,
  "\u2581island": 5138,
  "\u2581kwenkqubo": 5139,
  "\u2581sikaYehova": 5140,
  "\u2581wasebenzisa": 5141,
  "ile": 5142,
  "siphelo": 5143,
  "yisebenzisa": 5144,
  "\u2581react": 5145,
  "\u2581wayefuna": 5146,
  "nciphisa": 5147,
  "\u2581iintlanganiso": 5148,
  "\u2581isantya": 5149,
  "\u2581severe": 5150,
  "\u2581ubuncinane": 5151,
  "fike": 5152,
  "khangele": 5153,
  "\u2581black": 5154,
  "\u2581iimpahla": 5155,
  "\u2581moment": 5156,
  "\u2581nize": 5157,
  "ncedwa": 5158,
  "saziwa": 5159,
  "\u2581abanga": 5160,
  "\u2581ezintlanu": 5161,
  "\u2581nexesha": 5162,
  "\u2581ngamanzi": 5163,
  "\u2581ukhetho": 5164,
  "Thelekisa": 5165,
  "ngqondo": 5166,
  "\u2581kuqhubeka": 5167,
  "\u2581ngokufanayo": 5168,
  "phethe": 5169,
  "\u2581lamaNgqina": 5170,
  "\u2581uMthetho": 5171,
  "keni": 5172,
  "\u2581Indoda": 5173,
  "\u2581US": 5174,
  "\u2581abafileyo": 5175,
  "\u2581kwako": 5176,
  "\u2581nomdla": 5177,
  "\u2581sizathu": 5178,
  "\u2581story": 5179,
  "\u2581trade": 5180,
  "intshi": 5181,
  "\u2581AIDS": 5182,
  "\u2581device": 5183,
  "\u2581identify": 5184,
  "\u2581itsho": 5185,
  "\u2581kwinkonzo": 5186,
  "\u2581manifest": 5187,
  "\u2581ukungena": 5188,
  "\u2581wealth": 5189,
  "\u2581zibonisa": 5190,
  "khonze": 5191,
  "\u2581indalo": 5192,
  "\u2581leads": 5193,
  "\u2581leaving": 5194,
  "\u2581lithetha": 5195,
  "\u2581minds": 5196,
  "\u2581offerings": 5197,
  "\u2581prospect": 5198,
  "lin": 5199,
  "phume": 5200,
  "\u2581circuit": 5201,
  "\u2581inqwelo": 5202,
  "\u2581official": 5203,
  "\u2581providing": 5204,
  "\u2581reduce": 5205,
  "\u2581tears": 5206,
  "Compare": 5207,
  "les": 5208,
  "one": 5209,
  "\u2581abonisa": 5210,
  "\u2581consideration": 5211,
  "\u2581iiyure": 5212,
  "\u2581nomsebenzi": 5213,
  "\u2581useful": 5214,
  "\u2581zomhlaba": 5215,
  "qhubela": 5216,
  "\u2581dust": 5217,
  "\u2581kwaSirayeli": 5218,
  "\u2581lwamagama": 5219,
  "\u2581ngemali": 5220,
  "\u2581plan": 5221,
  "of": 5222,
  "\u2581enabled": 5223,
  "sifundisa": 5224,
  "\u2581crew": 5225,
  "\u2581isenoku": 5226,
  "\u2581kunoko": 5227,
  "\u2581yokuhlala": 5228,
  "ndle": 5229,
  "swele": 5230,
  "\u2581entlango": 5231,
  "\u2581enyanisweni": 5232,
  "\u2581imigudu": 5233,
  "\u2581kwathiwa": 5234,
  "nxiba": 5235,
  "sixelela": 5236,
  "thembisa": 5237,
  "\u2581Exodus": 5238,
  "\u2581amalungiselelo": 5239,
  "\u2581clothing": 5240,
  "\u2581iinkalo": 5241,
  "\u2581illness": 5242,
  "\u2581inner": 5243,
  "\u2581kaKristu": 5244,
  "\u2581train": 5245,
  "nalo": 5246,
  "ndisa": 5247,
  "neni": 5248,
  "\u2581akwiphepha": 5249,
  "\u2581efana": 5250,
  "\u2581host": 5251,
  "\u2581ingcamango": 5252,
  "Sikolo": 5253,
  "anga": 5254,
  "\u25811991": 5255,
  "\u2581Choose": 5256,
  "\u2581Remove": 5257,
  "\u2581izizathu": 5258,
  "\u2581print": 5259,
  "\u2581ubungakanani": 5260,
  "\u2581welcome": 5261,
  "\u2581isonka": 5262,
  "\u2581mere": 5263,
  "\u2581pride": 5264,
  "\u2581zizi": 5265,
  "ina": 5266,
  "mlomo": 5267,
  "\u2581Keyboard": 5268,
  "\u2581font": 5269,
  "\u2581harvest": 5270,
  "\u2581methods": 5271,
  "\u2581speaks": 5272,
  "\u2581upright": 5273,
  "\u2581Deuteronomy": 5274,
  "\u2581IThe": 5275,
  "\u2581east": 5276,
  "\u2581noonyana": 5277,
  "thuma": 5278,
  "\u2581zezulu": 5279,
  "chasa": 5280,
  "phele": 5281,
  "yibona": 5282,
  "zelwe": 5283,
  "\u2581Committee": 5284,
  "\u2581easier": 5285,
  "\u2581iziyobisi": 5286,
  "funi": 5287,
  "mabandla": 5288,
  "\u2581inkxaso": 5289,
  "\u2581performed": 5290,
  "\u2581worse": 5291,
  "ngaphezulu": 5292,
  "\u2581Language": 5293,
  "\u2581Su": 5294,
  "\u2581average": 5295,
  "\u2581forgiveness": 5296,
  "\u2581officer": 5297,
  "age": 5298,
  "gqibe": 5299,
  "\u2581Di": 5300,
  "\u2581Home": 5301,
  "\u2581Masi": 5302,
  "\u2581capital": 5303,
  "\u2581rulers": 5304,
  "\u2581ubuhlobo": 5305,
  "\u2581amahlanu": 5306,
  "\u2581movement": 5307,
  "ure": 5308,
  "\u2581f": 5309,
  "\u2581isihlandlo": 5310,
  "\u2581nenxaxheba": 5311,
  "\u2581patients": 5312,
  "dlo": 5313,
  "siza": 5314,
  "ud": 5315,
  "\u2581comments": 5316,
  "\u2581discovered": 5317,
  "\u2581waku": 5318,
  "\u2581Ngomfanekiso": 5319,
  "\u2581aid": 5320,
  "\u2581sat": 5321,
  "\u2581thine": 5322,
  "chukumisa": 5323,
  "thethe": 5324,
  "\u2581bound": 5325,
  "\u2581esuka": 5326,
  "balaseleyo": 5327,
  "\u2581ears": 5328,
  "\u2581provision": 5329,
  "yeke": 5330,
  "\u2581Kwana": 5331,
  "\u2581Questions": 5332,
  "\u2581bafumana": 5333,
  "\u2581equal": 5334,
  "\u2581lokuphila": 5335,
  "nesifo": 5336,
  "\u2581ayikho": 5337,
  "\u2581fulfill": 5338,
  "\u2581hospital": 5339,
  "\u2581nothando": 5340,
  "\u2581returns": 5341,
  "\u2581umdlalo": 5342,
  "dy": 5343,
  "\u2581capacity": 5344,
  "\u2581listening": 5345,
  "\u2581patience": 5346,
  "\u2581staff": 5347,
  "mfanekiso": 5348,
  "mpi": 5349,
  "\u2581Ngapha": 5350,
  "\u2581Sun": 5351,
  "\u2581Wena": 5352,
  "\u2581ekhethekileyo": 5353,
  "\u2581okuqala": 5354,
  "\u2581sail": 5355,
  "\u2581ubone": 5356,
  "dale": 5357,
  "\u2581screen": 5358,
  "\u2581urhulumente": 5359,
  "ZI": 5360,
  "linda": 5361,
  "\u2581Iqela": 5362,
  "Ngoku": 5363,
  "seli": 5364,
  "\u2581Colossians": 5365,
  "\u2581Galatians": 5366,
  "\u2581Phofu": 5367,
  "\u2581ehamba": 5368,
  "\u2581eziye": 5369,
  "\u2581immorality": 5370,
  "\u2581nkalo": 5371,
  "\u2581sincere": 5372,
  "\u2581student": 5373,
  "\u2581witnesses": 5374,
  "\u2581bahlala": 5375,
  "\u2581design": 5376,
  "\u2581hide": 5377,
  "\u2581siphila": 5378,
  "nko": 5379,
  "nyana": 5380,
  "yinto": 5381,
  "zinikele": 5382,
  "\u2581ndiyi": 5383,
  "\u2581straight": 5384,
  "\u2581Hav": 5385,
  "\u2581engine": 5386,
  "\u2581ukoyika": 5387,
  "Bu": 5388,
  "\u2581Brooklyn": 5389,
  "\u2581England": 5390,
  "\u2581imbono": 5391,
  "\u2581phandle": 5392,
  "\u2581secular": 5393,
  "\u2581ugqirha": 5394,
  "\u2581views": 5395,
  "Ngokuqhelekileyo": 5396,
  "\u2581IMboniselo": 5397,
  "\u2581evident": 5398,
  "manzi": 5399,
  "\u2581\"[": 5400,
  "\u2581Jordan": 5401,
  "\u2581anxiety": 5402,
  "\u2581portion": 5403,
  "\u2581terminal": 5404,
  "\u2581yiBhayibhile": 5405,
  "nxulumana": 5406,
  "sihlandlo": 5407,
  "zipho": 5408,
  "\u258144": 5409,
  "\u2581bazalwana": 5410,
  "\u2581etempileni": 5411,
  "\u2581ilungu": 5412,
  "eli": 5413,
  "qhubeke": 5414,
  "terminal": 5415,
  "\u2581Zazi": 5416,
  "\u2581intsingiselo": 5417,
  "Ko": 5418,
  "lolo": 5419,
  "q": 5420,
  "\u258113]": 5421,
  "\u2581Imibuzo": 5422,
  "\u2581assist": 5423,
  "bonakaliswa": 5424,
  "lizwi": 5425,
  "\u2581Inqaku": 5426,
  "\u2581caring": 5427,
  "\u2581healthy": 5428,
  "\u2581sky": 5429,
  "12": 5430,
  "gen": 5431,
  "luncedo": 5432,
  "nguye": 5433,
  "zalisa": 5434,
  "\u2581friendship": 5435,
  "\u2581ifestile": 5436,
  "\u2581iintambo": 5437,
  "\u2581kweBhayibhile": 5438,
  "\u2581nceda": 5439,
  "\u2581rejected": 5440,
  "\u2581remote": 5441,
  "\u2581territory": 5442,
  "lunye": 5443,
  "phendule": 5444,
  "\u2581Enter": 5445,
  "\u2581link": 5446,
  "\u2581nye": 5447,
  "\u2581strive": 5448,
  "\u2581Right": 5449,
  "\u2581September": 5450,
  "\u2581constant": 5451,
  "\u2581mmandla": 5452,
  "\u2581Council": 5453,
  "Thixo": 5454,
  "kh": 5455,
  "lungiselelwe": 5456,
  "okanye": 5457,
  "\u2581depth": 5458,
  "\u2581ezisixhenxe": 5459,
  "\u2581newspaper": 5460,
  "\u2581possess": 5461,
  "\u2581uthile": 5462,
  "bar": 5463,
  "ngummangaliso": 5464,
  "zukisa": 5465,
  "\u2581August": 5466,
  "\u2581uSirayeli": 5467,
  "\u2581zikho": 5468,
  "ner": 5469,
  "phazamisa": 5470,
  "ten": 5471,
  "\u25812000": 5472,
  "\u2581Dictionary": 5473,
  "\u2581mbali": 5474,
  "\u2581ndizi": 5475,
  "Ndiya": 5476,
  "\u258125,": 5477,
  "\u2581University": 5478,
  "\u2581double": 5479,
  "\u2581grateful": 5480,
  "lisi": 5481,
  "lwimi": 5482,
  "\u2581Simele": 5483,
  "\u2581Yiya": 5484,
  "\u2581mark": 5485,
  "\u2581usenokuba": 5486,
  "\u2581Phezu": 5487,
  "\u2581ekhayeni": 5488,
  "\u2581forced": 5489,
  "\u2581iintshaba": 5490,
  "\u2581magazines": 5491,
  "\u2581walked": 5492,
  "vukela": 5493,
  "\u2581Navy": 5494,
  "\u2581dealing": 5495,
  "\u2581depression": 5496,
  "\u2581kulula": 5497,
  "\u2581weak": 5498,
  "khuthazwa": 5499,
  "siwa": 5500,
  "\u2581ibhokisi": 5501,
  "\u2581lomntu": 5502,
  "\u2581teaches": 5503,
  "nxweme": 5504,
  "\u2581Cor": 5505,
  "\u2581degree": 5506,
  "\u2581elowo": 5507,
  "\u2581stars": 5508,
  "ngasemva": 5509,
  "nomxholo": 5510,
  "ziswa": 5511,
  "\u25811992": 5512,
  "\u2581closely": 5513,
  "\u2581isicelo": 5514,
  "\u2581management": 5515,
  "\u2581nenjongo": 5516,
  "\u2581sovereignty": 5517,
  "\u2581umnqweno": 5518,
  "\u2581worshipers": 5519,
  "RA": 5520,
  "libale": 5521,
  "ngxaki": 5522,
  "xelelwa": 5523,
  "\u258147": 5524,
  "\u2581kwelanga": 5525,
  "\u2581radio": 5526,
  "ance": 5527,
  "lahle": 5528,
  "majoni": 5529,
  "phelelwe": 5530,
  "\u2581ingozi": 5531,
  "\u2581nibe": 5532,
  "\u2581ohlala": 5533,
  "\u2581receiving": 5534,
  "\u2581travel": 5535,
  "\u2581beza": 5536,
  "\u2581ngcembe": 5537,
  "\u2581rudder": 5538,
  "nqaku": 5539,
  "\u2581behlabathi": 5540,
  "\u2581contain": 5541,
  "\u2581ebusweni": 5542,
  "\u2581fore": 5543,
  "\u2581survive": 5544,
  "tshaba": 5545,
  "\u2581Report": 5546,
  "\u2581center": 5547,
  "\u2581embalwa": 5548,
  "\u2581refers": 5549,
  "\u2581yokufunda": 5550,
  "\u2581block": 5551,
  "\u2581chose": 5552,
  "\u2581decades": 5553,
  "\u2581elincinane": 5554,
  "\u2581nethemba": 5555,
  "\u2581width": 5556,
  "hlawula": 5557,
  "sasaza": 5558,
  "\u2581Njenga": 5559,
  "\u2581offspring": 5560,
  "\u2581significant": 5561,
  "nqwelo": 5562,
  "qiniseka": 5563,
  "\u2581adults": 5564,
  "\u2581drive": 5565,
  "\u2581goodness": 5566,
  "\u2581hidden": 5567,
  "\u2581loves": 5568,
  "\u2581store": 5569,
  "\u2581ukubaluleka": 5570,
  "90": 5571,
  "DA": 5572,
  "SA": 5573,
  "selula": 5574,
  "\u2581Parents": 5575,
  "\u2581nomnye": 5576,
  "time": 5577,
  "tt": 5578,
  "zibuko": 5579,
  "\u2581Govern": 5580,
  "\u2581Land": 5581,
  "\u2581Philistines": 5582,
  "\u2581governments": 5583,
  "\u2581okusesikweni": 5584,
  "\u2581sides": 5585,
  "\u2581souls": 5586,
  "\u2581yamaNgqina": 5587,
  "ence": 5588,
  "fayili": 5589,
  "phembelela": 5590,
  "zinto": 5591,
  "\u2581abundance": 5592,
  "\u2581highly": 5593,
  "\u2581kuwa": 5594,
  "\u2581reign": 5595,
  "\u2581Look": 5596,
  "\u2581gather": 5597,
  "\u2581nabazali": 5598,
  "\u2581yesebe": 5599,
  "ating": 5600,
  "ite": 5601,
  "misele": 5602,
  "sithuba": 5603,
  "tempile": 5604,
  "tyu": 5605,
  "\u2581immoral": 5606,
  "\u2581iziganeko": 5607,
  "\u2581scale": 5608,
  "\u2581wakwaSirayeli": 5609,
  "ngaphezu": 5610,
  "\u2581Inyaniso": 5611,
  "\u2581ukuziphatha": 5612,
  "\u2581Biblical": 5613,
  "\u2581Human": 5614,
  "\u2581contrary": 5615,
  "\u2581eziza": 5616,
  "\u2581overseers": 5617,
  "ley": 5618,
  "\u2581Esinye": 5619,
  "\u2581heed": 5620,
  "\u2581isabelo": 5621,
  "\u2581myalezo": 5622,
  "\u2581neighbors": 5623,
  "\u2581organized": 5624,
  "kutshatyalaliswa": 5625,
  "my": 5626,
  "vutha": 5627,
  "\u25811993": 5628,
  "\u2581Ubu": 5629,
  "\u2581churches": 5630,
  "\u2581depends": 5631,
  "\u2581heads": 5632,
  "\u2581ikhaya": 5633,
  "\u2581umculo": 5634,
  "ard": 5635,
  "mangalisa": 5636,
  "yu": 5637,
  "\u2581Enable": 5638,
  "\u2581Hlela": 5639,
  "\u2581edge": 5640,
  "Ne": 5641,
  "senziwa": 5642,
  "tshatyalaliswa": 5643,
  "\u2581culture": 5644,
  "\u2581kumhlaba": 5645,
  "\u2581ngoBukumkani": 5646,
  "\u2581superior": 5647,
  "\u2581wafumana": 5648,
  "ft": 5649,
  "\u2581Union": 5650,
  "\u2581ingqibelelo": 5651,
  "\u2581nesabelo": 5652,
  "ncede": 5653,
  "ncinci": 5654,
  "ngeniso": 5655,
  "nikele": 5656,
  "not": 5657,
  "\u2581Any": 5658,
  "\u2581Elilawulayo": 5659,
  "\u2581Zoku": 5660,
  "\u2581benga": 5661,
  "\u2581confident": 5662,
  "\u2581herself": 5663,
  "\u2581remnant": 5664,
  "\u2581song": 5665,
  "\u2581Surely": 5666,
  "\u2581UA": 5667,
  "\u2581beauty": 5668,
  "\u2581sufficient": 5669,
  "butho": 5670,
  "gxininisa": 5671,
  "mgca": 5672,
  "senokuba": 5673,
  "thelekiswa": 5674,
  "tri": 5675,
  "\u2581Ngokwe": 5676,
  "\u2581Red": 5677,
  "\u2581encouraging": 5678,
  "\u2581symptoms": 5679,
  "\u2581thuba": 5680,
  "hlanganisa": 5681,
  "ized": 5682,
  "melwe": 5683,
  "\u2581ikamva": 5684,
  "\u2581kubona": 5685,
  "\u2581temporary": 5686,
  "\u2581yamanzi": 5687,
  "ED": 5688,
  "minyaka": 5689,
  "\u2581kwakuza": 5690,
  "\u2581ulwalathiso": 5691,
  "donga": 5692,
  "jw": 5693,
  "ncoko": 5694,
  "\u2581Faith": 5695,
  "\u2581esimele": 5696,
  "\u2581solution": 5697,
  "dinga": 5698,
  "kwamkela": 5699,
  "nceba": 5700,
  "\u2581River": 5701,
  "\u2581Ro": 5702,
  "\u2581brain": 5703,
  "\u2581ngabazali": 5704,
  "sile": 5705,
  "\u2581HTML": 5706,
  "\u2581Officer": 5707,
  "\u2581kunene": 5708,
  "\u2581princes": 5709,
  "\u2581suitable": 5710,
  "15": 5711,
  "Nkosi": 5712,
  "\u2581INtshumayeli": 5713,
  "\u2581Pa": 5714,
  "\u2581baqalisa": 5715,
  "\u2581kowe": 5716,
  "\u2581shared": 5717,
  "\u2581signs": 5718,
  "\u2581sinned": 5719,
  "\u2581wabuza": 5720,
  "lowo": 5721,
  "\u25811919": 5722,
  "\u2581Light": 5723,
  "\u2581opportunities": 5724,
  "\u2581recognized": 5725,
  "\u2581unknown": 5726,
  "bonakalayo": 5727,
  "ngabi": 5728,
  "ngene": 5729,
  "zinikela": 5730,
  "\u2581zeal": 5731,
  "30": 5732,
  "\u2581December": 5733,
  "\u2581holding": 5734,
  "kufuna": 5735,
  "\u25811995": 5736,
  "\u2581Levites": 5737,
  "\u2581Ngoobani": 5738,
  "\u2581Noku": 5739,
  "\u2581Spanish": 5740,
  "\u2581accomplish": 5741,
  "\u2581neminyaka": 5742,
  "\u2581yentsimbi": 5743,
  "bonise": 5744,
  "zizwe": 5745,
  "\u2581decide": 5746,
  "\u2581hot": 5747,
  "\u2581husbands": 5748,
  "\u2581ideas": 5749,
  "\u2581kokomoya": 5750,
  "\u2581Tshintsha": 5751,
  "\u2581media": 5752,
  "\u2581stream": 5753,
  "\u2581Cofa": 5754,
  "\u2581obo": 5755,
  "\u2581science": 5756,
  "dada": 5757,
  "j": 5758,
  "nokukwenza": 5759,
  "\u2581Ngokufuthi": 5760,
  "\u2581Umbhali": 5761,
  "\u2581akuthethi": 5762,
  "\u2581approval": 5763,
  "\u2581calling": 5764,
  "\u2581marked": 5765,
  "\u2581nine": 5766,
  "\u2581phaya": 5767,
  "Yo": 5768,
  "lungile": 5769,
  "nce": 5770,
  "soyika": 5771,
  "vusa": 5772,
  "\u2581eyenziwe": 5773,
  "\u2581render": 5774,
  "\u2581seriously": 5775,
  "\u2581waiting": 5776,
  "vakala": 5777,
  "\u2581nobu": 5778,
  "\u2581oluhle": 5779,
  "Afrika": 5780,
  "sen": 5781,
  "seva": 5782,
  "\u2581angry": 5783,
  "\u2581ezinzima": 5784,
  "\u2581ukulawula": 5785,
  "\u2581zine": 5786,
  "BA": 5787,
  "\u2581amalungelo": 5788,
  "\u2581angaphezu": 5789,
  "\u2581bahlale": 5790,
  "\u2581ngobubele": 5791,
  "bethelela": 5792,
  "ngum": 5793,
  "ntloko": 5794,
  "\u2581channel": 5795,
  "\u2581kaPawulos": 5796,
  "\u2581kuvela": 5797,
  "\u2581praying": 5798,
  "\u2581rights": 5799,
  "\u2581ubulungiseleli": 5800,
  "\u2581yokwenene": 5801,
  "ngabantu": 5802,
  "ngaphambili": 5803,
  "\u2581birds": 5804,
  "\u2581clothes": 5805,
  "\u2581iimpazamo": 5806,
  "mer": 5807,
  "\u2581Source": 5808,
  "\u2581kwesinye": 5809,
  "bangel": 5810,
  "yile": 5811,
  "\u2581North": 5812,
  "\u2581Obu": 5813,
  "\u2581Yakobi": 5814,
  "\u2581ezingaphezu": 5815,
  "\u2581koYehova": 5816,
  "\u2581ngendlu": 5817,
  "hambela": 5818,
  "nabo": 5819,
  "nqulo": 5820,
  "\u2581ekhoyo": 5821,
  "\u2581phephancwadi": 5822,
  "ndenza": 5823,
  "\u2581Kuye": 5824,
  "\u2581allows": 5825,
  "\u2581ephakamileyo": 5826,
  "\u2581ng": 5827,
  "\u2581ngaso": 5828,
  "\u2581ukusi": 5829,
  "ndinceda": 5830,
  "qhubana": 5831,
  "\u25811;": 5832,
  "\u2581Kwenzeka": 5833,
  "\u2581balance": 5834,
  "\u2581conflict": 5835,
  "\u2581joyful": 5836,
  "\u2581passing": 5837,
  "\u2581telling": 5838,
  "dabi": 5839,
  "gqala": 5840,
  "ngafanelekanga": 5841,
  "zalise": 5842,
  "\u2581Akukwazek": 5843,
  "\u2581hatred": 5844,
  "kudala": 5845,
  "\u2581Yiba": 5846,
  "\u2581amaqela": 5847,
  "\u2581bawu": 5848,
  "\u2581release": 5849,
  "\u2581soldiers": 5850,
  "\u2581vast": 5851,
  "CO": 5852,
  "gathandabuzekiyo": 5853,
  "mbali": 5854,
  "\u2581Desktop": 5855,
  "\u2581Umyalelo": 5856,
  "\u2581trial": 5857,
  "\u2581writes": 5858,
  "hluke": 5859,
  "vimba": 5860,
  "\u2581amatsha": 5861,
  "\u2581dark": 5862,
  "\u2581ill": 5863,
  "\u2581Give": 5864,
  "\u2581Malunga": 5865,
  "\u2581assistance": 5866,
  "\u2581commandment": 5867,
  "\u2581delete": 5868,
  "\u2581yedwa": 5869,
  "\u2581Apha": 5870,
  "\u2581October": 5871,
  "\u2581folders": 5872,
  "\u2581iingcamango": 5873,
  "\u2581neye": 5874,
  "\u2581njengaba": 5875,
  "\u2581uwa": 5876,
  "As": 5877,
  "ncoma": 5878,
  "qho": 5879,
  "\u25812011": 5880,
  "\u2581Center": 5881,
  "\u2581etc": 5882,
  "\u2581mature": 5883,
  "\u2581scientists": 5884,
  "\u2581utata": 5885,
  "\u2581Management": 5886,
  "\u2581Oonyana": 5887,
  "\u2581Umhla": 5888,
  "\u2581edluleyo": 5889,
  "\u2581isipho": 5890,
  "\u2581ngokunjalo": 5891,
  "\u2581obtain": 5892,
  "\u2581region": 5893,
  "\u2581remaining": 5894,
  "bethwa": 5895,
  "sona": 5896,
  "wazi": 5897,
  "\u2581emfutshane": 5898,
  "\u2581epheleleyo": 5899,
  "\u2581forest": 5900,
  "lelwa": 5901,
  "ler": 5902,
  "qondi": 5903,
  "samkela": 5904,
  "\u2581Data": 5905,
  "\u2581abahlala": 5906,
  "\u2581arise": 5907,
  "\u2581luza": 5908,
  "Xesha": 5909,
  "nqumla": 5910,
  "\u25818]": 5911,
  "\u2581Enkulu": 5912,
  "\u2581izifo": 5913,
  "\u2581olunjalo": 5914,
  "\u2581Font": 5915,
  "\u2581ababingeleli": 5916,
  "\u2581kwabakho": 5917,
  "\u2581potential": 5918,
  "\u2581slaves": 5919,
  "\u2581abathathu": 5920,
  "\u2581cried": 5921,
  "\u2581emotions": 5922,
  "\u2581imizekelo": 5923,
  "\u2581izindlu": 5924,
  "\u2581nanye": 5925,
  "\u2581nomhlaba": 5926,
  "\u2581project": 5927,
  "\u2581zobomi": 5928,
  "akhawunti": 5929,
  "kisa": 5930,
  "nikelwe": 5931,
  "nikezelwa": 5932,
  "phathe": 5933,
  "\u2581Address": 5934,
  "\u2581enza": 5935,
  "\u2581mzi": 5936,
  "\u2581ngase": 5937,
  "\u2581ruin": 5938,
  "ntlangano": 5939,
  "\u2581burning": 5940,
  "\u2581exactly": 5941,
  "candelo": 5942,
  "dweliswe": 5943,
  "\u2581ear": 5944,
  "\u2581invitation": 5945,
  "\u2581kwiimeko": 5946,
  "\u2581owe": 5947,
  "\u2581tabernacle": 5948,
  "\u2581video": 5949,
  "ise": 5950,
  "\u2581Memorial": 5951,
  "\u2581network": 5952,
  "\u2581tu": 5953,
  "Kristu": 5954,
  "Zizwe": 5955,
  "dlule": 5956,
  "hlisa": 5957,
  "lungiswa": 5958,
  "ngasebenzi": 5959,
  "tshutshiswa": 5960,
  "zalisekisa": 5961,
  "\u2581constantly": 5962,
  "\u2581ifanele": 5963,
  "hashe": 5964,
  "mbona": 5965,
  "migudu": 5966,
  "nqaba": 5967,
  "sitya": 5968,
  "\u2581boBukumkani": 5969,
  "\u2581girls": 5970,
  "\u2581impressed": 5971,
  "\u2581ongumKristu": 5972,
  "log": 5973,
  "\u2581discreet": 5974,
  "\u2581facts": 5975,
  "\u2581gun": 5976,
  "\u2581released": 5977,
  "\u2581studied": 5978,
  "\u2581umthandazo": 5979,
  "\u2581Ngexesha": 5980,
  "\u2581cells": 5981,
  "\u2581kwaza": 5982,
  "\u2581stones": 5983,
  "\u2581structure": 5984,
  "\u2581uqeqesho": 5985,
  "\u2581usuku": 5986,
  "\u2581Up": 5987,
  "\u2581causing": 5988,
  "\u2581ebi": 5989,
  "\u2581iinguqulelo": 5990,
  "\u2581outstanding": 5991,
  "\u2581tribes": 5992,
  "\u2581ubuntu": 5993,
  "\u2581ukuthobela": 5994,
  "11": 5995,
  "NE": 5996,
  "balandeli": 5997,
  "red": 5998,
  "\u258126,": 5999,
  "\u2581IS": 6000,
  "\u2581iingxelo": 6001,
  "\u2581ngokusebenzisa": 6002,
  "\u2581otherwise": 6003,
  "\u2581quit": 6004,
  "\u2581refuge": 6005,
  "ELA": 6006,
  "ST": 6007,
  "qhutyelwa": 6008,
  "\u2581aspects": 6009,
  "\u2581concluded": 6010,
  "\u2581diseases": 6011,
  "\u2581evidently": 6012,
  "\u2581granted": 6013,
  "St": 6014,
  "ex": 6015,
  "ngaze": 6016,
  "\u2581ana": 6017,
  "\u2581beneficial": 6018,
  "ber": 6019,
  "kholo": 6020,
  "mnyama": 6021,
  "off": 6022,
  "\u2581enu": 6023,
  "\u2581noKristu": 6024,
  "\u2581responded": 6025,
  "qumrhu": 6026,
  "veliswa": 6027,
  "\u2581Isizathu": 6028,
  "\u2581Loku": 6029,
  "\u2581Republic": 6030,
  "\u2581Start": 6031,
  "\u2581umgangatho": 6032,
  "hlelo": 6033,
  "khule": 6034,
  "ntsi": 6035,
  "\u2581divided": 6036,
  "\u2581nakwii": 6037,
  "lahlekelwa": 6038,
  "\u2581ithe": 6039,
  "\u2581noxolo": 6040,
  "AR": 6041,
  "zwe": 6042,
  "\u2581Latin": 6043,
  "\u2581yomsebenzi": 6044,
  "busuku": 6045,
  "lic": 6046,
  "qela": 6047,
  "\u2581emtshatweni": 6048,
  "\u2581grown": 6049,
  "\u2581iimpendulo": 6050,
  "\u2581kwenzeke": 6051,
  "\u2581limit": 6052,
  "\u2581meat": 6053,
  "jongwa": 6054,
  "\u2581amava": 6055,
  "\u2581dream": 6056,
  "\u2581iintlungu": 6057,
  "\u2581imbali": 6058,
  "\u2581imbopheleleko": 6059,
  "\u2581inqanawe": 6060,
  "\u2581Compare": 6061,
  "\u2581January": 6062,
  "\u2581annual": 6063,
  "\u2581hair": 6064,
  "\u2581naluphi": 6065,
  "\u2581oli": 6066,
  "\u2581yile": 6067,
  "khumbuza": 6068,
  "phephancwadi": 6069,
  "\u2581yayingu": 6070,
  "buchule": 6071,
  "\u2581Pennsylvania": 6072,
  "\u2581property": 6073,
  "\u2581umbuzo": 6074,
  "\u2581wayesazi": 6075,
  "ana": 6076,
  "kade": 6077,
  "kufutshane": 6078,
  "\u258151": 6079,
  "\u2581Thelekisa": 6080,
  "\u2581maxesha": 6081,
  "\u2581wachaza": 6082,
  "balulekileyo": 6083,
  "fuzisela": 6084,
  "ntolongo": 6085,
  "zona": 6086,
  "\u2581Second": 6087,
  "\u2581journey": 6088,
  "\u2581pointed": 6089,
  "ally": 6090,
  "fune": 6091,
  "mibhalo": 6092,
  "njongo": 6093,
  "\u2581isibini": 6094,
  "\u2581rendered": 6095,
  "\u2581ziba": 6096,
  "luleka": 6097,
  "\u2581eyenziwa": 6098,
  "\u2581kusengaphambili": 6099,
  "\u2581ngeelwimi": 6100,
  "\u2581properly": 6101,
  "80": 6102,
  "qeqesha": 6103,
  "saba": 6104,
  "\u2581archive": 6105,
  "\u2581eziya": 6106,
  "\u2581ngamaKristu": 6107,
  "\u2581omncinane": 6108,
  "\u2581uYeremiya": 6109,
  "US": 6110,
  "Yi": 6111,
  "nento": 6112,
  "phupha": 6113,
  "qonde": 6114,
  "wini": 6115,
  "\u2581El": 6116,
  "\u2581Ezimanyeneyo": 6117,
  "\u2581abathi": 6118,
  "\u2581bukaYehova": 6119,
  "\u2581insight": 6120,
  "\u2581lize": 6121,
  "\u2581mast": 6122,
  "\u2581nolwalamano": 6123,
  "nder": 6124,
  "\u2581ngenqanawa": 6125,
  "\u2581resist": 6126,
  "!\"": 6127,
  "lisebenzisa": 6128,
  "mpostile": 6129,
  "\u2581conclude": 6130,
  "\u2581declare": 6131,
  "\u2581kuhle": 6132,
  "\u2581nabafazi": 6133,
  "\u2581ogama": 6134,
  "\u2581species": 6135,
  "\u2581Yongeza": 6136,
  "\u2581correctly": 6137,
  "\u2581directed": 6138,
  "\u2581kwano": 6139,
  "\u2581ophezulu": 6140,
  "\u2581000.": 6141,
  "\u258149": 6142,
  "\u2581Pacific": 6143,
  "\u2581afuna": 6144,
  "\u2581iingenelo": 6145,
  "\u2581itempile": 6146,
  "\u2581skills": 6147,
  "\u2581ukuwu": 6148,
  "\u2581umfundisi": 6149,
  "veki": 6150,
  "\u2581entsimini": 6151,
  "\u2581played": 6152,
  "\u2581ukunika": 6153,
  "\u2581waqhubeka": 6154,
  "NO": 6155,
  "chasene": 6156,
  "mnandi": 6157,
  "\u00ae": 6158,
  "\u2581assured": 6159,
  "\u2581compared": 6160,
  "\u2581foundation": 6161,
  "\u2581kaSathana": 6162,
  "\u2581komntu": 6163,
  "\u2581kwabaseKorinte": 6164,
  "\u2581located": 6165,
  "\u2581nqanawa": 6166,
  "\u2581sees": 6167,
  "\u2581sounds": 6168,
  "\u2581tyaba": 6169,
  "\u2581widow": 6170,
  "intanethi": 6171,
  "ot": 6172,
  "\u2581bobabini": 6173,
  "\u2581doctors": 6174,
  "\u2581nonke": 6175,
  "\u2581tender": 6176,
  "ngokweemvakalelo": 6177,
  "sizwe": 6178,
  "\u2581clergy": 6179,
  "\u2581kusoloko": 6180,
  "\u2581olungileyo": 6181,
  "\u2581wavuma": 6182,
  "sebenzisana": 6183,
  "\u258116]": 6184,
  "\u2581Ngokucacileyo": 6185,
  "\u2581advance": 6186,
  "\u2581esithile": 6187,
  "\u2581ezenziwe": 6188,
  "\u2581happens": 6189,
  "\u2581lwezinto": 6190,
  "\u2581satisfaction": 6191,
  "\u2581sithetha": 6192,
  "\u2581sona": 6193,
  "\u2581subjects": 6194,
  "ble": 6195,
  "mana": 6196,
  "mfazwe": 6197,
  "oyile": 6198,
  "zenzele": 6199,
  "\u2581Ububanzi": 6200,
  "\u2581ebu": 6201,
  "ekhilomitha": 6202,
  "fake": 6203,
  "if": 6204,
  "\u2581Gospel": 6205,
  "\u2581Sunday": 6206,
  "\u2581kuwu": 6207,
  "mangaliswa": 6208,
  "\u2581laza": 6209,
  "\u2581mazi": 6210,
  "\u2581post": 6211,
  "kwindawo": 6212,
  "\u2581Never": 6213,
  "\u2581Ngokwahlukileyo": 6214,
  "\u2581Yena": 6215,
  "\u2581eNew": 6216,
  "\u2581zeefayili": 6217,
  "set": 6218,
  "\u2581Photo": 6219,
  "\u2581akuzange": 6220,
  "\u2581burden": 6221,
  "\u2581elininzi": 6222,
  "\u2581finished": 6223,
  "\u2581nowe": 6224,
  "\u2581resulted": 6225,
  "\u2581tend": 6226,
  "phinde": 6227,
  "\u258100": 6228,
  "\u2581latter": 6229,
  "\u2581plans": 6230,
  "\u2581zokuqala": 6231,
  "ngalindelekanga": 6232,
  "\u2581Ayiphumelelanga": 6233,
  "\u2581Mat": 6234,
  "\u2581armies": 6235,
  "\u2581athethe": 6236,
  "\u2581failure": 6237,
  "\u2581imithi": 6238,
  "\u2581keeps": 6239,
  "\u2581ngezantsi": 6240,
  "\u2581weapons": 6241,
  "\u2581yayikuku": 6242,
  "matshini": 6243,
  "\u2581Impendulo": 6244,
  "\u2581Jonathan": 6245,
  "\u2581babeza": 6246,
  "\u2581connect": 6247,
  "\u2581glorious": 6248,
  "\u2581worthy": 6249,
  "\u2581yinxalenye": 6250,
  "fihla": 6251,
  "hlu": 6252,
  "ran": 6253,
  "\u2581Peace": 6254,
  "\u2581contribute": 6255,
  "\u2581lobuthixo": 6256,
  "\u2581wamandulo": 6257,
  "\u2581ane": 6258,
  "\u2581athetha": 6259,
  "\u2581ezenziwa": 6260,
  "\u2581ezingakumbi": 6261,
  "\u2581kw": 6262,
  "\u2581linga": 6263,
  "\u2581street": 6264,
  "ELO": 6265,
  "guqulela": 6266,
  "kumkani": 6267,
  "miselweyo": 6268,
  "mthombo": 6269,
  "tshintshe": 6270,
  "\u2581Background": 6271,
  "\u2581Wandul": 6272,
  "\u2581becala": 6273,
  "\u2581entertainment": 6274,
  "\u2581iindwendwe": 6275,
  "\u2581okusemandleni": 6276,
  "\u2581Command": 6277,
  "\u2581Options": 6278,
  "\u2581ministers": 6279,
  "\u2581primary": 6280,
  "\u2581uE": 6281,
  "thuka": 6282,
  "\u2581400": 6283,
  "\u258175": 6284,
  "\u2581Ixabiso": 6285,
  "\u2581bokuqala": 6286,
  "\u2581di": 6287,
  "\u2581emoyeni": 6288,
  "\u2581proof": 6289,
  "\u2581smoke": 6290,
  "Ta": 6291,
  "ful": 6292,
  "nini": 6293,
  "thembele": 6294,
  "\u25812012": 6295,
  "\u2581balanced": 6296,
  "\u2581lomoya": 6297,
  "\u2581uko": 6298,
  "Qumrhu": 6299,
  "gxeka": 6300,
  "khuselekile": 6301,
  "lima": 6302,
  "njenga": 6303,
  "vuyisa": 6304,
  "\u2581Bar": 6305,
  "\u2581July": 6306,
  "\u2581attribute": 6307,
  "\u2581ayizange": 6308,
  "\u2581imibhalo": 6309,
  "\u2581secured": 6310,
  "nokwenziwa": 6311,
  "\u2581freely": 6312,
  "\u2581makhe": 6313,
  "\u2581private": 6314,
  "YA": 6315,
  "ntla": 6316,
  "\u2581demonstrate": 6317,
  "\u2581honest": 6318,
  "\u2581om": 6319,
  "\u2581successfully": 6320,
  "ak": 6321,
  "qhele": 6322,
  "\u2581Contact": 6323,
  "\u2581Marko": 6324,
  "\u2581Ruth": 6325,
  "\u2581restored": 6326,
  "mithi": 6327,
  "nxibelelana": 6328,
  "\u2581119": 6329,
  "\u2581Al": 6330,
  "\u2581Almighty": 6331,
  "\u2581Amadoda": 6332,
  "\u2581Baal": 6333,
  "\u2581code": 6334,
  "\u2581fourth": 6335,
  "\u2581fruitage": 6336,
  "\u2581glad": 6337,
  "\u2581isixeko": 6338,
  "\u2581koThixo": 6339,
  "\u2581witnessing": 6340,
  "\u2581yini": 6341,
  "\u2581yom": 6342,
  "silivere": 6343,
  "\u2581Kings": 6344,
  "\u2581ahlala": 6345,
  "\u2581approved": 6346,
  "\u2581esebenza": 6347,
  "\u2581lips": 6348,
  "\u2581ukuva": 6349,
  "-8": 6350,
  "jikeleze": 6351,
  "\u2581Ubude": 6352,
  "\u2581alongside": 6353,
  "\u2581bube": 6354,
  "\u2581okuba": 6355,
  "IS": 6356,
  "bingeleli": 6357,
  "mpembelelo": 6358,
  "xha": 6359,
  "\u2581caught": 6360,
  "\u2581critical": 6361,
  "\u2581expressions": 6362,
  "\u2581lord": 6363,
  "buye": 6364,
  "lifa": 6365,
  "\u2581doctrine": 6366,
  "\u2581izizwe": 6367,
  "\u2581kubu": 6368,
  "\u2581kungabikho": 6369,
  "\u2581lift": 6370,
  "\u2581obtained": 6371,
  "\u2581sold": 6372,
  "\u2581thanks": 6373,
  "khankanya": 6374,
  "mfundo": 6375,
  "nkundla": 6376,
  "nqanda": 6377,
  "sekho": 6378,
  "vala": 6379,
  "\u2581copies": 6380,
  "\u2581fields": 6381,
  "\u2581tab": 6382,
  "\u2581uYise": 6383,
  "\u2581wayalela": 6384,
  "SI": 6385,
  "dubula": 6386,
  "vavanyo": 6387,
  "vuselela": 6388,
  "\u2581arose": 6389,
  "format": 6390,
  "hlule": 6391,
  "sebe": 6392,
  "visisana": 6393,
  "\u2581belong": 6394,
  "\u2581inhabited": 6395,
  "\u2581owenziwa": 6396,
  "\u2581uYoshuwa": 6397,
  "\u2581v": 6398,
  "\u2581yokuphila": 6399,
  "\u2581zokulwa": 6400,
  "bhetele": 6401,
  "qinisekile": 6402,
  "thini": 6403,
  "zifumana": 6404,
  "\u2581Copy": 6405,
  "\u2581Spain": 6406,
  "\u2581Zion": 6407,
  "\u2581burned": 6408,
  "\u2581chance": 6409,
  "\u2581enamandla": 6410,
  "\u2581ikhondo": 6411,
  "\u2581lwenqanawa": 6412,
  "\u2581quick": 6413,
  "\u2581select": 6414,
  "\u2581wokwenene": 6415,
  "siqulathi": 6416,
  "suku": 6417,
  "\u2581Settings": 6418,
  "\u2581bee": 6419,
  "\u2581lasting": 6420,
  "\u2581ndathi": 6421,
  "\u2581ukufaka": 6422,
  "17": 6423,
  "cula": 6424,
  "\u2581150": 6425,
  "\u2581Am": 6426,
  "\u2581Pro": 6427,
  "\u2581fat": 6428,
  "\u2581lukhulu": 6429,
  "\u2581sinful": 6430,
  "\u2581spring": 6431,
  "boni": 6432,
  "\u2581(\"": 6433,
  "\u2581Filipi": 6434,
  "\u2581Print": 6435,
  "\u2581lwama": 6436,
  "\u2581uphela": 6437,
  "\u2581usana": 6438,
  "\u2581variety": 6439,
  "KU": 6440,
  "makhulu": 6441,
  "\u2581Preferences": 6442,
  "\u2581Ra": 6443,
  "\u2581befuna": 6444,
  "\u2581strengthened": 6445,
  "\u2581wazo": 6446,
  "hlaba": 6447,
  "\u2581leaves": 6448,
  "\u2581price": 6449,
  "khwela": 6450,
  "lungiselele": 6451,
  "ngqiqo": 6452,
  "sisa": 6453,
  "\u2581Museum": 6454,
  "\u2581finding": 6455,
  "\u2581handling": 6456,
  "\u2581imizi": 6457,
  "\u2581installed": 6458,
  "\u2581kumaKristu": 6459,
  "\u2581kunceda": 6460,
  "\u2581ulu": 6461,
  "60": 6462,
  "LI": 6463,
  "rhulumente": 6464,
  "sinda": 6465,
  "sine": 6466,
  "yila": 6467,
  "\u258134.": 6468,
  "\u2581Organization": 6469,
  "\u2581refer": 6470,
  "\u2581smaller": 6471,
  "qwe": 6472,
  "\u2581End": 6473,
  "\u2581aft": 6474,
  "\u2581kundi": 6475,
  "\u2581kusenza": 6476,
  "\u2581piece": 6477,
  "\u2581uMariya": 6478,
  "\u2581volume": 6479,
  "Sirayeli": 6480,
  "\u258121]": 6481,
  "\u2581BIBLE": 6482,
  "\u2581Ubukhulu": 6483,
  "\u2581ekuhambeni": 6484,
  "\u2581iingcinga": 6485,
  "\u2581objects": 6486,
  "\u2581surprise": 6487,
  "mntwana": 6488,
  "ngezelelekileyo": 6489,
  "tar": 6490,
  "\u2581amandulo": 6491,
  "\u2581differ": 6492,
  "\u2581esihle": 6493,
  "\u2581mhla": 6494,
  "\u2581ngokutsha": 6495,
  "\u2581wayenga": 6496,
  "bethe": 6497,
  "bhale": 6498,
  "nyuke": 6499,
  "\u2581eziphilayo": 6500,
  "\u2581sifumane": 6501,
  "bude": 6502,
  "min": 6503,
  "senze": 6504,
  "suse": 6505,
  "\u25811994": 6506,
  "\u258152": 6507,
  "\u2581June": 6508,
  "\u2581Volume": 6509,
  "\u2581iNgqina": 6510,
  "han": 6511,
  "mbalwa": 6512,
  "mbombo": 6513,
  "nokholo": 6514,
  "\u258172": 6515,
  "\u2581Answer": 6516,
  "\u2581Get": 6517,
  "\u2581exesheni": 6518,
  "\u2581listened": 6519,
  "\u2581sisenoku": 6520,
  "\u2581suddenly": 6521,
  "\u2581surgery": 6522,
  "bhaliweyo": 6523,
  "hlanganisana": 6524,
  "\u2581ekhethiweyo": 6525,
  "\u2581fuel": 6526,
  "\u2581pleased": 6527,
  "\u2581tasks": 6528,
  "\u2581ukwenjenjalo": 6529,
  "Ntaba": 6530,
  "hlanga": 6531,
  "kumelana": 6532,
  "mizuzu": 6533,
  "ngenza": 6534,
  "thwa": 6535,
  "vili": 6536,
  "\u2581Fumana": 6537,
  "\u2581Server": 6538,
  "\u2581heat": 6539,
  "\u2581senza": 6540,
  "\u2581yokusebenza": 6541,
  "bhokisi": 6542,
  "desktop": 6543,
  "nesi": 6544,
  "ngeza": 6545,
  "profeta": 6546,
  "suswa": 6547,
  "xelele": 6548,
  "\u2581Mar": 6549,
  "\u2581elithembekileyo": 6550,
  "\u2581labor": 6551,
  "\u2581okokuqala": 6552,
  "\u2581ought": 6553,
  "\u2581touch": 6554,
  "Ngaba": 6555,
  "chithe": 6556,
  "ngoma": 6557,
  "\u2581arms": 6558,
  "\u2581enzulu": 6559,
  "day": 6560,
  "ger": 6561,
  "kona": 6562,
  "\u2581URL": 6563,
  "\u2581YOU": 6564,
  "\u2581abanjalo": 6565,
  "\u2581entitled": 6566,
  "\u2581establish": 6567,
  "\u2581satisfied": 6568,
  "fumani": 6569,
  "name": 6570,
  "phezu": 6571,
  "\u258112]": 6572,
  "\u25811998": 6573,
  "\u2581Control": 6574,
  "\u2581amathandathu": 6575,
  "\u2581feels": 6576,
  "hlukile": 6577,
  "mileyo": 6578,
  "nele": 6579,
  "thengiswa": 6580,
  "\u2581USathana": 6581,
  "\u2581difficulties": 6582,
  "\u2581moon": 6583,
  "\u2581reject": 6584,
  "\u2581waste": 6585,
  "ach": 6586,
  "hlula": 6587,
  "\u2581Wenza": 6588,
  "\u2581deeds": 6589,
  "\u2581holds": 6590,
  "\u2581huge": 6591,
  "\u2581kwento": 6592,
  "\u2581lwayo": 6593,
  "\u2581naso": 6594,
  "\u2581replaced": 6595,
  "\u2581uDaniyeli": 6596,
  "\u2581united": 6597,
  "Bo": 6598,
  "bandakanyeka": 6599,
  "bukele": 6600,
  "guqulelwa": 6601,
  "vavanywa": 6602,
  "\u2581Date": 6603,
  "\u2581kulwazi": 6604,
  "\u2581relates": 6605,
  "\u2581uphando": 6606,
  "cele": 6607,
  "\u258166": 6608,
  "\u2581Ministry": 6609,
  "\u2581blocks": 6610,
  "\u2581invalid": 6611,
  "\u2581wesibini": 6612,
  "Lowo": 6613,
  "xwebhu": 6614,
  "yinyaniso": 6615,
  "\u2581Christmas": 6616,
  "\u2581bokomoya": 6617,
  "\u2581drawing": 6618,
  "\u2581elithetha": 6619,
  "\u2581features": 6620,
  "14": 6621,
  "hlelwa": 6622,
  "landele": 6623,
  "\u25812002": 6624,
  "\u2581Imagine": 6625,
  "\u2581conducted": 6626,
  "\u2581eliphezulu": 6627,
  "\u2581en": 6628,
  "\u2581green": 6629,
  "\u2581habits": 6630,
  "\u2581ilandelayo": 6631,
  "\u2581ntle": 6632,
  "hl": 6633,
  "khankanywe": 6634,
  "\u2581fixed": 6635,
  "\u2581iinyembezi": 6636,
  "\u2581kwakuya": 6637,
  "\u2581qela": 6638,
  "\u2581wear": 6639,
  "mp": 6640,
  "yeyona": 6641,
  "\u2581Britain": 6642,
  "\u2581Think": 6643,
  "\u2581kuyinto": 6644,
  "Abantu": 6645,
  "chazwe": 6646,
  "\u2581Public": 6647,
  "\u2581abakhulileyo": 6648,
  "\u2581fled": 6649,
  "\u2581ikrele": 6650,
  "\u2581kwisithuba": 6651,
  "\u2581manager": 6652,
  "\u2581stick": 6653,
  "\u2581wayeya": 6654,
  "MA": 6655,
  "gqitywa": 6656,
  "hlaziya": 6657,
  "nyamezele": 6658,
  "nze": 6659,
  "sandi": 6660,
  "\u2581ngokulula": 6661,
  "\u2581njengento": 6662,
  "\u2581sihlandlo": 6663,
  "\u2581ukanti": 6664,
  "\u2581yenziwa": 6665,
  "bantu": 6666,
  "\u2581fearing": 6667,
  "\u2581ili": 6668,
  "\u2581iniquity": 6669,
  "\u2581instructions": 6670,
  "deck": 6671,
  "fanisa": 6672,
  "thuthuzela": 6673,
  "\u2581Check": 6674,
  "\u2581India": 6675,
  "\u2581isiprofeto": 6676,
  "\u2581reveals": 6677,
  "\u2581wave": 6678,
  "lawule": 6679,
  "ntombi": 6680,
  "\u2581Woku": 6681,
  "\u2581bekuya": 6682,
  "\u2581iseyile": 6683,
  "\u2581photo": 6684,
  "\u2581wire": 6685,
  "She": 6686,
  "gcinwe": 6687,
  "ntle": 6688,
  "sihla": 6689,
  "sonka": 6690,
  "\u258129,": 6691,
  "\u2581NGABA": 6692,
  "\u2581certificate": 6693,
  "\u2581enkulungwane": 6694,
  "\u2581kuna": 6695,
  "\u2581provisions": 6696,
  "\u2581ukhokelo": 6697,
  "\u2581ukuyenza": 6698,
  "gunya": 6699,
  "hlabela": 6700,
  "phindaphindiweyo": 6701,
  "\u2581Athi": 6702,
  "\u2581Ngamanye": 6703,
  "\u2581abefundisi": 6704,
  "\u2581card": 6705,
  "\u2581complex": 6706,
  "\u2581email": 6707,
  "\u2581frequently": 6708,
  "\u2581tool": 6709,
  "\u2581uyakwazi": 6710,
  "\u2581victim": 6711,
  "\u2581zealous": 6712,
  "UThixo": 6713,
  "nokukwazi": 6714,
  "sis": 6715,
  "thoba": 6716,
  "\u2581anti": 6717,
  "\u2581beast": 6718,
  "\u2581ngantoni": 6719,
  "\u2581scientific": 6720,
  "\u2581wale": 6721,
  "\u2581yaso": 6722,
  "phosa": 6723,
  "thwale": 6724,
  "zihlandlo": 6725,
  "\u2581iinjongo": 6726,
  "XA": 6727,
  "hlamba": 6728,
  "lahleka": 6729,
  "liswe": 6730,
  "sebenzi": 6731,
  "\u2581Umdlalo": 6732,
  "\u2581boys": 6733,
  "\u2581intended": 6734,
  "\u2581negalelo": 6735,
  "\u2581ngeminyaka": 6736,
  "\u2581target": 6737,
  "\u2581wom": 6738,
  "buyiselwa": 6739,
  "gqitha": 6740,
  "ngenzi": 6741,
  "qeshwa": 6742,
  "\u2581Come": 6743,
  "\u2581Ngako": 6744,
  "\u2581Ta": 6745,
  "\u2581amacebiso": 6746,
  "\u2581applying": 6747,
  "\u2581compare": 6748,
  "\u2581enqanawa": 6749,
  "\u2581epapashwe": 6750,
  "Ndandi": 6751,
  "mvula": 6752,
  "wenze": 6753,
  "\u2581Ukholo": 6754,
  "\u2581bokwenyaniso": 6755,
  "\u2581familiar": 6756,
  "\u2581indlebe": 6757,
  "\u2581kulawula": 6758,
  "ISO": 6759,
  "are": 6760,
  "engile": 6761,
  "lam": 6762,
  "our": 6763,
  "yingenelo": 6764,
  "\u2581Often": 6765,
  "\u2581TV": 6766,
  "\u2581emihlanu": 6767,
  "\u2581fallen": 6768,
  "\u2581female": 6769,
  "\u2581iinkokeli": 6770,
  "\u2581nearby": 6771,
  "\u2581uncwadi": 6772,
  "ap": 6773,
  "fundise": 6774,
  "seYerusalem": 6775,
  "\u2581ayinaku": 6776,
  "\u2581column": 6777,
  "\u2581succeed": 6778,
  "\u2581zininzi": 6779,
  "nkqubela": 6780,
  "yifumana": 6781,
  "\u2581bar": 6782,
  "\u2581district": 6783,
  "\u2581enzima": 6784,
  "\u2581lokugqibela": 6785,
  "\u2581ubume": 6786,
  "lelo": 6787,
  "lona": 6788,
  "\u2581Isa": 6789,
  "\u2581Regard": 6790,
  "\u2581abaprofeti": 6791,
  "\u2581arranged": 6792,
  "\u2581aspect": 6793,
  "\u2581elements": 6794,
  "\u2581oogqirha": 6795,
  "\u2581settings": 6796,
  "24": 6797,
  "den": 6798,
  "lazi": 6799,
  "ngelo": 6800,
  "\u2581Ifayile": 6801,
  "\u2581Inkoliso": 6802,
  "\u2581bones": 6803,
  "\u2581enge": 6804,
  "\u2581entry": 6805,
  "\u2581ezithathu": 6806,
  "\u2581frame": 6807,
  "\u2581iziphumo": 6808,
  "\u2581log": 6809,
  "fundi": 6810,
  "gazi": 6811,
  "lahla": 6812,
  "vuyiswa": 6813,
  "\u2581600": 6814,
  "\u2581compass": 6815,
  "\u2581isandi": 6816,
  "\u2581kwendlela": 6817,
  "\u2581kwigumbi": 6818,
  "\u2581lunga": 6819,
  "\u2581restore": 6820,
  "\u2581uhlolisiso": 6821,
  "They": 6822,
  "lan": 6823,
  "maleko": 6824,
  "\u2581Hezekiah": 6825,
  "\u2581November": 6826,
  "\u2581adult": 6827,
  "\u2581firmly": 6828,
  "\u2581kunyaka": 6829,
  "\u2581replied": 6830,
  "BO": 6831,
  "bubele": 6832,
  "inch": 6833,
  "kwenziwa": 6834,
  "nokuthi": 6835,
  "sandla": 6836,
  "xhase": 6837,
  "\u2581Ezo": 6838,
  "\u2581Free": 6839,
  "\u2581General": 6840,
  "\u2581Group": 6841,
  "\u2581iku": 6842,
  "\u2581innocent": 6843,
  "\u2581kolawulo": 6844,
  "\u2581levels": 6845,
  "\u2581linye": 6846,
  "\u2581recalls": 6847,
  "UYehova": 6848,
  "ndwe": 6849,
  "qobo": 6850,
  "ts": 6851,
  "\u2581exposed": 6852,
  "\u2581nyana": 6853,
  "\u2581television": 6854,
  "LU": 6855,
  "kholose": 6856,
  "\u2581Te": 6857,
  "\u2581sickness": 6858,
  "mikhosi": 6859,
  "nkululeko": 6860,
  "\u2581accomplished": 6861,
  "\u2581companions": 6862,
  "\u2581ezinoku": 6863,
  "\u2581facilities": 6864,
  "\u2581iThe": 6865,
  "\u2581iinyawo": 6866,
  "\u2581kusasa": 6867,
  "\u2581lifted": 6868,
  "\u2581lomtshato": 6869,
  "\u2581marvelous": 6870,
  "\u2581neya": 6871,
  "\u2581owo": 6872,
  "\u2581siganeko": 6873,
  "\u2581sithethe": 6874,
  "\u2581uxwebhu": 6875,
  "celwa": 6876,
  "ngca": 6877,
  "nyo": 6878,
  "\u2581Private": 6879,
  "\u2581attendance": 6880,
  "\u2581bond": 6881,
  "\u2581contents": 6882,
  "ria": 6883,
  "ziyobisi": 6884,
  "\u2581iliso": 6885,
  "\u2581kuphila": 6886,
  "\u2581occasions": 6887,
  "\u2581othembekileyo": 6888,
  "\u2581phone": 6889,
  "\u2581uNowa": 6890,
  "\u2581ukunxulumana": 6891,
  "dluliselwa": 6892,
  "gubungela": 6893,
  "kholelwe": 6894,
  "mbala": 6895,
  "nzululwazi": 6896,
  "phucula": 6897,
  "sikhitshane": 6898,
  "sixeko": 6899,
  "xabiseke": 6900,
  "\u2581flee": 6901,
  "\u2581ifayile": 6902,
  "\u2581isa": 6903,
  "\u2581officials": 6904,
  "\u2581pagan": 6905,
  "\u2581somoya": 6906,
  "athathu": 6907,
  "qondo": 6908,
  "\u2581120": 6909,
  "\u2581ngokuqinileyo": 6910,
  "\u2581umonakalo": 6911,
  "\u2581zaza": 6912,
  "\u258156": 6913,
  "\u2581Ar": 6914,
  "\u2581Likewise": 6915,
  "\u2581Phinda": 6916,
  "\u2581Teach": 6917,
  "\u2581Uthe": 6918,
  "\u2581apparently": 6919,
  "\u2581asibhozo": 6920,
  "\u2581dwelling": 6921,
  "\u2581emalunga": 6922,
  "\u2581feature": 6923,
  "\u2581ichaza": 6924,
  "\u2581magama": 6925,
  "\u2581ndaya": 6926,
  "\u2581ngomsebenzi": 6927,
  "\u2581onothando": 6928,
  "gosa": 6929,
  "thwele": 6930,
  "\u2581bacinga": 6931,
  "\u2581broke": 6932,
  "\u2581inyathelo": 6933,
  "hlawulwa": 6934,
  "nja": 6935,
  "planga": 6936,
  "\u25811950": 6937,
  "\u2581langa": 6938,
  "\u2581zemfazwe": 6939,
  "caphula": 6940,
  "\u25811970": 6941,
  "\u258124,": 6942,
  "\u258130,": 6943,
  "\u2581Ukhetho": 6944,
  "\u2581ezikhoyo": 6945,
  "\u2581marry": 6946,
  "\u2581prophetic": 6947,
  "\u2581temptation": 6948,
  "\u2581walls": 6949,
  "funwa": 6950,
  "lwayo": 6951,
  "thandabuza": 6952,
  "xho": 6953,
  "\u2581elunxwemeni": 6954,
  "\u2581shepherds": 6955,
  "\u2581ungathanda": 6956,
  "Ii": 6957,
  "phondo": 6958,
  "yithanda": 6959,
  "\u2581Tim": 6960,
  "\u2581ebizwa": 6961,
  "\u2581kumaxesha": 6962,
  "\u2581ulwandle": 6963,
  "How": 6964,
  "bumba": 6965,
  "khuselwe": 6966,
  "lungu": 6967,
  "mhlambi": 6968,
  "phephe": 6969,
  "\u2581Russia": 6970,
  "\u2581bafunde": 6971,
  "\u2581calm": 6972,
  "\u2581shore": 6973,
  "\u2581umdala": 6974,
  "\u2581ummandla": 6975,
  "lizwe": 6976,
  "seleyo": 6977,
  "senoku": 6978,
  "\u2581Luluph": 6979,
  "\u2581umqondiso": 6980,
  "dumisa": 6981,
  "\u2581Liyinyaniso": 6982,
  "\u2581agreed": 6983,
  "\u2581centre": 6984,
  "\u2581entabeni": 6985,
  "\u2581isebenze": 6986,
  "\u2581izwi": 6987,
  "\u2581nuclear": 6988,
  "\u2581ran": 6989,
  "\u2581represented": 6990,
  "\u2581touched": 6991,
  "\u2581ukwakha": 6992,
  "\u2581valley": 6993,
  "linye": 6994,
  "nengxaki": 6995,
  "zithoba": 6996,
  "\u2581dealings": 6997,
  "\u2581kubantwana": 6998,
  "\u2581kwemini": 6999,
  "\u2581possession": 7000,
  "\u2581struggle": 7001,
  "\u2581survey": 7002,
  "\u2581ububanzi": 7003,
  "\u2581wazala": 7004,
  "\u2581wonk": 7005,
  "\u2581Utsho": 7006,
  "\u2581bone": 7007,
  "\u2581shut": 7008,
  "\u2581traveled": 7009,
  "\u2581ukulwa": 7010,
  "\u2581ukuqinisekisa": 7011,
  "70": 7012,
  "kuphumelelekanga": 7013,
  "mnika": 7014,
  "nokusetyenziswa": 7015,
  "\u2581Pet": 7016,
  "\u2581serves": 7017,
  "ES": 7018,
  "\\": 7019,
  "mnyaka": 7020,
  "ngabikho": 7021,
  "tsalwa": 7022,
  "\u2581extra": 7023,
  "\u2581kumkani": 7024,
  "\u2581kuphinda": 7025,
  "\u2581kwakungekho": 7026,
  "\u2581oluninzi": 7027,
  "\u2581pleasant": 7028,
  "khanya": 7029,
  "yamkela": 7030,
  "\u2581Israelite": 7031,
  "\u2581KWI": 7032,
  "\u2581Send": 7033,
  "\u2581mild": 7034,
  "\u2581njengomntu": 7035,
  "\u2581thank": 7036,
  "buzwa": 7037,
  "mandla": 7038,
  "mibandela": 7039,
  "ngxelo": 7040,
  "\u2581elihle": 7041,
  "\u2581sets": 7042,
  "\u2581treasure": 7043,
  "kufunda": 7044,
  "nkcazelo": 7045,
  "vumeli": 7046,
  "\u2581Merika": 7047,
  "\u2581Robert": 7048,
  "\u2581chain": 7049,
  "\u2581eneneni": 7050,
  "\u2581input": 7051,
  "\u2581metal": 7052,
  "\u2581mveliso": 7053,
  "\u2581refuse": 7054,
  "ep": 7055,
  "\u2581connected": 7056,
  "\u2581imfundo": 7057,
  "\u2581owathi": 7058,
  "\u2581season": 7059,
  "\u2581stake": 7060,
  "\u2581steel": 7061,
  "\u2581ugonyamelo": 7062,
  "\u2581yinyaniso": 7063,
  "phanda": 7064,
  "yenze": 7065,
  "\u2581appointment": 7066,
  "\u2581conventions": 7067,
  "\u2581grain": 7068,
  "\u2581uhambo": 7069,
  "\u2581unokuba": 7070,
  "\u2581arrangements": 7071,
  "\u2581basebenzisa": 7072,
  "\u2581corrupt": 7073,
  "\u2581kukumkani": 7074,
  "\u2581mention": 7075,
  "\u2581ngezandla": 7076,
  "\u2581punishment": 7077,
  "\u2581shame": 7078,
  "\u2581wehlabathi": 7079,
  "\u2581yayiza": 7080,
  "luhlu": 7081,
  "ngqi": 7082,
  "ture": 7083,
  "\u2581FOR": 7084,
  "\u2581Intetho": 7085,
  "\u2581akakho": 7086,
  "\u2581ibinzana": 7087,
  "\u2581nazi": 7088,
  "\u2581ngoYesu": 7089,
  "\u2581press": 7090,
  "\u2581senzo": 7091,
  "\u2581Court": 7092,
  "\u2581Jonah": 7093,
  "\u2581Sarah": 7094,
  "\u2581currently": 7095,
  "\u2581ekwa": 7096,
  "\u2581nguvulindlela": 7097,
  "\u2581oye": 7098,
  "\u2581threat": 7099,
  "\u2581waves": 7100,
  "bathanda": 7101,
  "ek": 7102,
  "phawulekayo": 7103,
  "\u2581BE": 7104,
  "\u2581division": 7105,
  "\u2581ngeBhayibhile": 7106,
  "\u2581opinion": 7107,
  "\u2581ukuqhubeka": 7108,
  "\u2581ukuwa": 7109,
  "ngozi": 7110,
  "ntambo": 7111,
  "qhekeza": 7112,
  "tyekelo": 7113,
  "\u25811997": 7114,
  "\u2581Thessalonians": 7115,
  "\u2581fresh": 7116,
  "\u2581kungabi": 7117,
  "\u2581ngokutsho": 7118,
  "\u2581ngolwimi": 7119,
  "\u2581ngulo": 7120,
  "\u2581output": 7121,
  "DE": 7122,
  "KO": 7123,
  "balaselisa": 7124,
  "litye": 7125,
  "lumkele": 7126,
  "lunga": 7127,
  "nkupho": 7128,
  "rus": 7129,
  "thunyelwe": 7130,
  "\u2581Abadala": 7131,
  "\u2581ifuna": 7132,
  "\u2581iziqhamo": 7133,
  "\u2581ndlu": 7134,
  "\u2581ngabantwana": 7135,
  "\u2581relationships": 7136,
  "\u2581ukhe": 7137,
  "\u2581umgama": 7138,
  "\u2581umhlambi": 7139,
  "\u2581wacela": 7140,
  "maKristu": 7141,
  "meko": 7142,
  "nomoya": 7143,
  "thelekisa": 7144,
  "vuza": 7145,
  "\u2581Columbia": 7146,
  "\u2581Last": 7147,
  "\u2581Mexico": 7148,
  "\u2581Ngendlela": 7149,
  "\u2581capable": 7150,
  "\u2581lesiGrike": 7151,
  "\u2581ngovuyo": 7152,
  "\u2581yoluntu": 7153,
  "bhinqa": 7154,
  "butyebi": 7155,
  "isi": 7156,
  "lawulo": 7157,
  "linganiswa": 7158,
  "ndoda": 7159,
  "ngenelwa": 7160,
  "qinisa": 7161,
  "tshisa": 7162,
  "\u2581Find": 7163,
  "\u2581faithfully": 7164,
  "\u2581illustrate": 7165,
  "\u2581ngokoqobo": 7166,
  "\u2581tests": 7167,
  "\u2581wakwazi": 7168,
  "16": 7169,
  "kisi": 7170,
  "kuva": 7171,
  "om": 7172,
  "sesikweni": 7173,
  "\u2581cloud": 7174,
  "\u2581ezivela": 7175,
  "\u2581lalo": 7176,
  "\u2581verses": 7177,
  "bonakalise": 7178,
  "yifunda": 7179,
  "zimisela": 7180,
  "\u25811960": 7181,
  "\u258119;": 7182,
  "\u2581amanqaku": 7183,
  "\u2581atmosphere": 7184,
  "\u2581ende": 7185,
  "\u2581engazange": 7186,
  "\u2581involve": 7187,
  "\u2581kwimimandla": 7188,
  "\u2581mtshato": 7189,
  "\u2581nokwenza": 7190,
  "\u2581parable": 7191,
  "\u2581twelve": 7192,
  "\u2581ukuku": 7193,
  "balulekile": 7194,
  "der": 7195,
  "hambe": 7196,
  "phumelele": 7197,
  "\u258124;": 7198,
  "\u2581internal": 7199,
  "\u2581isithuba": 7200,
  "\u2581plants": 7201,
  "\u2581ports": 7202,
  "\u2581printed": 7203,
  "\u2581uno": 7204,
  "buze": 7205,
  "nelungelo": 7206,
  "\u2581Kuphela": 7207,
  "\u2581Pre": 7208,
  "\u2581adopted": 7209,
  "\u2581colors": 7210,
  "\u2581fornication": 7211,
  "\u2581iimfazwe": 7212,
  "\u2581permanent": 7213,
  "\u2581uTimoti": 7214,
  "\u2581ubukho": 7215,
  "\u2581zezo": 7216,
  "mhlophe": 7217,
  "nombulelo": 7218,
  "\u2581contained": 7219,
  "\u2581iilwimi": 7220,
  "\u2581leli": 7221,
  "\u2581sad": 7222,
  "\u2581statements": 7223,
  "\u2581unxibelelwano": 7224,
  "PA": 7225,
  "hluka": 7226,
  "ngalo": 7227,
  "xakekile": 7228,
  "\u2581Back": 7229,
  "\u2581ena": 7230,
  "\u2581funda": 7231,
  "\u2581neza": 7232,
  "bhalele": 7233,
  "bubanzi": 7234,
  "jongene": 7235,
  "qhelisela": 7236,
  "sinye": 7237,
  "\u2581afe": 7238,
  "\u2581affairs": 7239,
  "\u2581besenza": 7240,
  "\u2581iimbopheleleko": 7241,
  "\u2581ntlanganiso": 7242,
  "\u2581peaceful": 7243,
  "banceda": 7244,
  "kholosa": 7245,
  "ngxa": 7246,
  "seyile": 7247,
  "zulu": 7248,
  "\u2581ezinzulu": 7249,
  "\u2581nakwezinye": 7250,
  "\u2581physically": 7251,
  "\u2581protected": 7252,
  "\u2581reduced": 7253,
  "\u2581represent": 7254,
  "\u2581scriptures": 7255,
  "\u2581sitting": 7256,
  "car": 7257,
  "\u2581Current": 7258,
  "\u2581imiphefumlo": 7259,
  "\u2581omabini": 7260,
  "\u2581possibly": 7261,
  "\u2581sale": 7262,
  "kanye": 7263,
  "\u2581Kambe": 7264,
  "\u2581Password": 7265,
  "\u2581bandi": 7266,
  "\u2581billion": 7267,
  "\u2581loading": 7268,
  "\u2581ndenze": 7269,
  "\u2581privileges": 7270,
  "\u2581undeserved": 7271,
  "\u2581zenza": 7272,
  "gan": 7273,
  "nokusinceda": 7274,
  "tyi": 7275,
  "\u2581ababhali": 7276,
  "\u2581attempt": 7277,
  "\u2581emergency": 7278,
  "\u2581feed": 7279,
  "\u2581imele": 7280,
  "\u2581naziphi": 7281,
  "\u2581okunene": 7282,
  "\u2581ukwamkela": 7283,
  "lishumi": 7284,
  "mhla": 7285,
  "nembopheleleko": 7286,
  "nkonzo": 7287,
  "nkulu": 7288,
  "nobubele": 7289,
  "sengozini": 7290,
  "tal": 7291,
  "uri": 7292,
  "zigcina": 7293,
  "\u2581Ukufunda": 7294,
  "\u2581iinkolelo": 7295,
  "\u2581lomsebenzi": 7296,
  "\u2581olwenziwa": 7297,
  "\u2581ookumkani": 7298,
  "\u2581stayed": 7299,
  "\u2581ufunde": 7300,
  "\u2581ukuma": 7301,
  "\u2581veki": 7302,
  "Khangela": 7303,
  "shishini": 7304,
  "waka": 7305,
  "\u2581LikaThixo": 7306,
  "\u2581balu": 7307,
  "\u2581bama": 7308,
  "\u2581considering": 7309,
  "\u2581defined": 7310,
  "\u2581engage": 7311,
  "\u2581kindly": 7312,
  "\u2581lentlawulelo": 7313,
  "\u2581lwesi": 7314,
  "\u2581offers": 7315,
  "\u2581resolve": 7316,
  "\u2581ubusuku": 7317,
  "\u2581ukuphela": 7318,
  "\u2581utyando": 7319,
  "\u2581yezixhobo": 7320,
  "\u2581zisenoku": 7321,
  "lale": 7322,
  "mgwebo": 7323,
  "\u2581Kubalulekile": 7324,
  "\u2581belongs": 7325,
  "\u2581container": 7326,
  "\u2581kwisixeko": 7327,
  "\u2581ongumqondiso": 7328,
  "\u2581plain": 7329,
  "\u2581traditional": 7330,
  "\u2581uMateyu": 7331,
  "\u2581yiya": 7332,
  "\u25813]": 7333,
  "\u2581abandoned": 7334,
  "\u2581kungenxa": 7335,
  "\u2581measured": 7336,
  "\u2581ordered": 7337,
  "\u2581relations": 7338,
  "\u2581ukufundisa": 7339,
  "funyenwe": 7340,
  "miswa": 7341,
  "qukumbela": 7342,
  "\u2581Calendar": 7343,
  "\u2581Umgca": 7344,
  "\u2581kwizi": 7345,
  "\u2581lokwenza": 7346,
  "\u2581lovers": 7347,
  "\u2581sinners": 7348,
  "\u2581ukubandezeleka": 7349,
  "Watchtower": 7350,
  "\u25811945": 7351,
  "\u2581Religion": 7352,
  "\u2581kwintsapho": 7353,
  "\u2581loaded": 7354,
  "\u2581njengabantu": 7355,
  "\u2581wenqanawe": 7356,
  "KHO": 7357,
  "boniswe": 7358,
  "ngwa": 7359,
  "\u2581Izixhobo": 7360,
  "\u2581Ndo": 7361,
  "\u2581begins": 7362,
  "\u2581iinyanga": 7363,
  "\u2581namhla": 7364,
  "\u2581ngoba": 7365,
  "\u2581okufanayo": 7366,
  "\u2581remarkable": 7367,
  "\u2581uxabiso": 7368,
  "nwe": 7369,
  "\u2581Bayabuza": 7370,
  "\u2581Britannica": 7371,
  "\u2581Readers": 7372,
  "\u2581context": 7373,
  "\u2581goods": 7374,
  "\u2581im": 7375,
  "\u2581isidima": 7376,
  "\u2581kubafundi": 7377,
  "\u2581kungena": 7378,
  "\u2581ndinyana": 7379,
  "Kwa": 7380,
  "bugcisa": 7381,
  "qhelekileyo": 7382,
  "\u2581Micah": 7383,
  "\u2581Ulawulo": 7384,
  "\u2581Umphathi": 7385,
  "\u2581User": 7386,
  "\u2581trip": 7387,
  "\u2581En": 7388,
  "\u2581London": 7389,
  "\u2581commission": 7390,
  "\u2581ndini": 7391,
  "\u2581umfundi": 7392,
  "but": 7393,
  "ndalo": 7394,
  "susela": 7395,
  "zithanda": 7396,
  "\u2581achieve": 7397,
  "\u2581asinaku": 7398,
  "\u2581eyahlukileyo": 7399,
  "\u2581gets": 7400,
  "\u2581nelo": 7401,
  "\u2581neze": 7402,
  "\u2581tent": 7403,
  "khangeleka": 7404,
  "\u2581bazama": 7405,
  "\u2581couples": 7406,
  "\u2581deleted": 7407,
  "\u2581endeavor": 7408,
  "\u2581inherit": 7409,
  "\u2581ngokuthembeka": 7410,
  "\u2581ngqangi": 7411,
  "\u2581sing": 7412,
  "\u2581uhleli": 7413,
  "fundela": 7414,
  "ncedo": 7415,
  "tata": 7416,
  "\u2581buka": 7417,
  "\u2581kuphuma": 7418,
  "\u2581kwada": 7419,
  "\u2581olandelayo": 7420,
  "\u2581shape": 7421,
  "hlathi": 7422,
  "\u2581Network": 7423,
  "\u2581bade": 7424,
  "\u2581coast": 7425,
  "\u2581estimated": 7426,
  "\u2581ga": 7427,
  "\u2581impact": 7428,
  "\u2581storm": 7429,
  "\u2581yomhlaba": 7430,
  "dibene": 7431,
  "phambi": 7432,
  "rate": 7433,
  "vidiyo": 7434,
  "\u258127,": 7435,
  "\u2581Mosaic": 7436,
  "\u2581Umthetho": 7437,
  "\u2581burn": 7438,
  "\u2581commit": 7439,
  "\u2581doors": 7440,
  "\u2581sawo": 7441,
  "\u2581ukuzenza": 7442,
  "bonakaliswe": 7443,
  "kwimeko": 7444,
  "negalelo": 7445,
  "nqo": 7446,
  "nxibelelwano": 7447,
  "seBhayibhileni": 7448,
  "sindise": 7449,
  "thobele": 7450,
  "\u00b0": 7451,
  "\u2581Armageddon": 7452,
  "\u2581Further": 7453,
  "\u2581Gentiles": 7454,
  "\u2581Lot": 7455,
  "\u2581falls": 7456,
  "\u2581ngaphambilana": 7457,
  "\u2581unyaka": 7458,
  "\u2581worshippers": 7459,
  "\u2581Child": 7460,
  "\u2581Kumkani": 7461,
  "\u2581considerable": 7462,
  "\u2581determination": 7463,
  "\u2581satisfying": 7464,
  "\u2581sending": 7465,
  "\u2581zakudala": 7466,
  "cal": 7467,
  "kaThixo": 7468,
  "ngeyomfuneko": 7469,
  "\u2581Po": 7470,
  "\u2581Tab": 7471,
  "\u2581adultery": 7472,
  "\u2581bulumko": 7473,
  "\u2581disaster": 7474,
  "\u2581lessons": 7475,
  "\u2581ngomthandazo": 7476,
  "wotshi": 7477,
  "\u2581Galati": 7478,
  "\u2581audience": 7479,
  "\u2581communities": 7480,
  "\u2581engo": 7481,
  "\u2581isiseko": 7482,
  "\u2581kwanokuba": 7483,
  "\u2581largest": 7484,
  "\u2581mass": 7485,
  "\u2581materials": 7486,
  "\u2581suggest": 7487,
  "\u2581ufunda": 7488,
  "nembono": 7489,
  "nezinto": 7490,
  "noyolo": 7491,
  "\u2581Selection": 7492,
  "\u2581Shicilela": 7493,
  "\u2581Udidi": 7494,
  "\u2581imithwalo": 7495,
  "\u2581mpawu": 7496,
  "\u2581planet": 7497,
  "\u2581playing": 7498,
  "kamva": 7499,
  "shukumisela": 7500,
  "\u2581Imbono": 7501,
  "\u2581Usenoku": 7502,
  "\u2581customs": 7503,
  "\u2581drew": 7504,
  "\u2581ezifanayo": 7505,
  "\u2581preview": 7506,
  "\u2581reply": 7507,
  "\u2581siqhubeke": 7508,
  "\u2581uEliya": 7509,
  "EL": 7510,
  "ish": 7511,
  "layo": 7512,
  "vele": 7513,
  "\u258122;": 7514,
  "\u2581UGqr": 7515,
  "\u2581amashumi": 7516,
  "\u2581arm": 7517,
  "\u2581ephambili": 7518,
  "\u2581mi": 7519,
  "\u2581rose": 7520,
  "\u2581seventh": 7521,
  "\u2581testimony": 7522,
  "\u2581ukufuna": 7523,
  "\u2581ukunyaniseka": 7524,
  "\u2581zenqanawa": 7525,
  "Moya": 7526,
  "cace": 7527,
  "dityaniswa": 7528,
  "emfundiso": 7529,
  "krele": 7530,
  "\u2581Trinity": 7531,
  "\u2581bows": 7532,
  "\u2581injustice": 7533,
  "\u2581kufanelekile": 7534,
  "\u2581solid": 7535,
  "Komiti": 7536,
  "bhodi": 7537,
  "coca": 7538,
  "mbandezelo": 7539,
  "\u2581Action": 7540,
  "\u2581Iphepha": 7541,
  "\u2581engaphambili": 7542,
  "\u2581kwathi": 7543,
  "\u2581missing": 7544,
  "\u2581ngasekunene": 7545,
  "\u2581nomyeni": 7546,
  "\u2581policy": 7547,
  "\u2581poured": 7548,
  "\u2581sesisa": 7549,
  "\u2581streets": 7550,
  "gqibeleleyo": 7551,
  "phelela": 7552,
  "qhosha": 7553,
  "ros": 7554,
  "seza": 7555,
  "xabisekileyo": 7556,
  "\u25812010": 7557,
  "\u2581Japanese": 7558,
  "\u2581Old": 7559,
  "\u2581Soviet": 7560,
  "\u2581Thumela": 7561,
  "\u2581drop": 7562,
  "\u2581excellent": 7563,
  "\u2581measures": 7564,
  "\u2581neentlob": 7565,
  "\u2581proud": 7566,
  "\u2581scholars": 7567,
  "\u2581sisenza": 7568,
  "13": 7569,
  "DO": 7570,
  "kali": 7571,
  "nandiphe": 7572,
  "zweni": 7573,
  "\u2581dress": 7574,
  "\u2581imbeko": 7575,
  "banga": 7576,
  "mzantsi": 7577,
  "ngokuzenzekelayo": 7578,
  "sixhobo": 7579,
  "thenge": 7580,
  "\u2581Ufuna": 7581,
  "\u2581Which": 7582,
  "\u2581ezifanelekileyo": 7583,
  "\u2581lobuqu": 7584,
  "\u2581nalowo": 7585,
  "\u2581principal": 7586,
  "\u2581reflected": 7587,
  "\u2581yenkqubo": 7588,
  "ENT": 7589,
  "entsuku": 7590,
  "phakame": 7591,
  "sti": 7592,
  "tshaya": 7593,
  "\u2581Library": 7594,
  "\u2581UKumkani": 7595,
  "\u2581abaza": 7596,
  "\u2581fair": 7597,
  "\u2581gazi": 7598,
  "\u2581generations": 7599,
  "\u2581mistakes": 7600,
  "\u2581tax": 7601,
  "\u2581waphendula": 7602,
  "khuthaze": 7603,
  "lon": 7604,
  "nokukunceda": 7605,
  "nokuqiniseka": 7606,
  "ns": 7607,
  "vavanya": 7608,
  "zidalwa": 7609,
  "zukileyo": 7610,
  "\u2581baninzi": 7611,
  "\u2581baphile": 7612,
  "\u2581dangers": 7613,
  "\u2581differences": 7614,
  "\u2581ezona": 7615,
  "\u2581intshukumo": 7616,
  "\u2581kancinci": 7617,
  "\u2581shadow": 7618,
  "bungqina": 7619,
  "libala": 7620,
  "ngangeni": 7621,
  "nyanzela": 7622,
  "tshona": 7623,
  "\u2581Draw": 7624,
  "\u2581Imisebenzi": 7625,
  "\u2581attached": 7626,
  "\u2581towards": 7627,
  "Look": 7628,
  "ngathanda": 7629,
  "phikisana": 7630,
  "\u2581Car": 7631,
  "\u2581destination": 7632,
  "\u2581fitting": 7633,
  "\u2581harmful": 7634,
  "\u2581inguqulelo": 7635,
  "buxoki": 7636,
  "har": 7637,
  "manani": 7638,
  "ology": 7639,
  "sala": 7640,
  "sihlanu": 7641,
  "\u258153": 7642,
  "\u2581BY": 7643,
  "\u2581Eksodus": 7644,
  "\u2581Nazi": 7645,
  "\u2581entity": 7646,
  "\u2581ewe": 7647,
  "\u2581osi": 7648,
  "\u2581owenza": 7649,
  "\u2581signal": 7650,
  "gra": 7651,
  "hlakulela": 7652,
  "mbane": 7653,
  "ngakanani": 7654,
  "tsalela": 7655,
  "\u2581Emnye": 7656,
  "\u2581February": 7657,
  "\u2581actual": 7658,
  "\u2581extended": 7659,
  "\u2581ezenza": 7660,
  "\u2581fighting": 7661,
  "\u2581isenzo": 7662,
  "\u2581sisifo": 7663,
  "bele": 7664,
  "gwetywa": 7665,
  "ide": 7666,
  "khephu": 7667,
  "khokelwa": 7668,
  "ors": 7669,
  "phoswa": 7670,
  "\u2581Office": 7671,
  "\u2581diet": 7672,
  "\u2581famine": 7673,
  "\u2581knots": 7674,
  "\u2581myalelo": 7675,
  "\u2581reaching": 7676,
  "\u2581vertical": 7677,
  "\u2581zezinto": 7678,
  "Akukho": 7679,
  "Oku": 7680,
  "bambelele": 7681,
  "bungakanani": 7682,
  "msebenzi": 7683,
  "ncam": 7684,
  "\u2581Amandla": 7685,
  "\u2581Kwaba": 7686,
  "\u2581Ndathi": 7687,
  "\u2581Visit": 7688,
  "\u2581communicate": 7689,
  "\u2581hardly": 7690,
  "\u2581products": 7691,
  "\u2581siprofeto": 7692,
  "buKristu": 7693,
  "phelele": 7694,
  "phenjelelwa": 7695,
  "qwalasele": 7696,
  "\u258154": 7697,
  "\u2581Brazil": 7698,
  "\u2581appeal": 7699,
  "\u2581eBheteli": 7700,
  "\u2581fought": 7701,
  "\u2581mhlaba": 7702,
  "\u2581positions": 7703,
  "\u2581ubona": 7704,
  "bela": 7705,
  "nqu": 7706,
  "\u25811980": 7707,
  "\u2581quarter": 7708,
  "\u2581sibonisa": 7709,
  "\u2581surprised": 7710,
  "chaze": 7711,
  "kulo": 7712,
  "tes": 7713,
  "valelwa": 7714,
  "\u2581Learn": 7715,
  "\u2581Screen": 7716,
  "\u2581cares": 7717,
  "\u2581lithemba": 7718,
  "\u2581map": 7719,
  "\u2581yamaKristu": 7720,
  "bulale": 7721,
  "khuselwa": 7722,
  "naso": 7723,
  "ntaba": 7724,
  "\u2581CD": 7725,
  "\u2581kuhamba": 7726,
  "\u2581team": 7727,
  "\u2581tear": 7728,
  "\u2581uvavanyo": 7729,
  "BH": 7730,
  "fikile": 7731,
  "lila": 7732,
  "masti": 7733,
  "nyango": 7734,
  "ville": 7735,
  "\u2581YeBhayibhile": 7736,
  "\u2581kolwandle": 7737,
  "\u2581ngaku": 7738,
  "\u2581summer": 7739,
  "KA": 7740,
  "ize": 7741,
  "mkhonzi": 7742,
  "mvelo": 7743,
  "papashwe": 7744,
  "\u25814]": 7745,
  "\u2581Kuyabonakala": 7746,
  "\u2581Web": 7747,
  "\u2581ababa": 7748,
  "\u2581conscious": 7749,
  "\u2581initial": 7750,
  "\u2581starting": 7751,
  "let": 7752,
  "mke": 7753,
  "naye": 7754,
  "\u2581Iimpendulo": 7755,
  "\u2581d": 7756,
  "\u2581lesi": 7757,
  "\u2581nemi": 7758,
  "\u2581normally": 7759,
  "\u2581rulership": 7760,
  "\u2581specify": 7761,
  "Why": 7762,
  "YI": 7763,
  "balo": 7764,
  "ker": 7765,
  "xolele": 7766,
  "\u00ed": 7767,
  "\u2581bathe": 7768,
  "\u2581elukholweni": 7769,
  "\u2581gates": 7770,
  "\u2581idols": 7771,
  "\u2581smoking": 7772,
  "gumbi": 7773,
  "mvuzo": 7774,
  "vakaliswa": 7775,
  "vulela": 7776,
  "xhaphaza": 7777,
  "\u258144.": 7778,
  "\u2581Certificate": 7779,
  "\u2581astern": 7780,
  "\u2581bale": 7781,
  "\u2581grief": 7782,
  "\u2581inches": 7783,
  "\u2581miracles": 7784,
  "lufumana": 7785,
  "lungise": 7786,
  "nyamekele": 7787,
  "valelwe": 7788,
  "zayo": 7789,
  "zingca": 7790,
  "\u2581Map": 7791,
  "\u2581kusebenza": 7792,
  "\u2581ngohlobo": 7793,
  "\u2581vain": 7794,
  "banzi": 7795,
  "kugqibela": 7796,
  "phile": 7797,
  "sempilweni": 7798,
  "sisiseko": 7799,
  "tafile": 7800,
  "xhatshazwa": 7801,
  "\u2581Mail": 7802,
  "\u2581Waphendula": 7803,
  "\u2581commands": 7804,
  "\u2581emikhulu": 7805,
  "\u2581flow": 7806,
  "\u2581kuMoses": 7807,
  "\u2581lwalo": 7808,
  "\u2581naliphi": 7809,
  "\u2581ngumsebenzi": 7810,
  "lixesha": 7811,
  "mculo": 7812,
  "nkwenkwezi": 7813,
  "quot": 7814,
  "sebenzisi": 7815,
  "ser": 7816,
  "vuswa": 7817,
  "\u25811989": 7818,
  "\u2581Again": 7819,
  "\u2581Galilee": 7820,
  "\u2581Russian": 7821,
  "\u2581UMoses": 7822,
  "\u2581Whatever": 7823,
  "\u2581alarm": 7824,
  "\u2581claimed": 7825,
  "\u2581esitsha": 7826,
  "\u2581faces": 7827,
  "\u2581nyhani": 7828,
  "\u2581sim": 7829,
  "\u2581twice": 7830,
  "nama": 7831,
  "nco": 7832,
  "\u2581Konke": 7833,
  "\u2581Nje": 7834,
  "\u2581amajoni": 7835,
  "\u2581bakholelwa": 7836,
  "\u2581bhetele": 7837,
  "\u2581eJamani": 7838,
  "\u2581famous": 7839,
  "\u2581feast": 7840,
  "\u2581kwaso": 7841,
  "\u2581mba": 7842,
  "\u2581ukungabi": 7843,
  "\u2581umzali": 7844,
  "lungelelanisa": 7845,
  "zimela": 7846,
  "\u25811996": 7847,
  "\u25811999": 7848,
  "\u2581Moab": 7849,
  "\u2581akana": 7850,
  "\u2581amakholwa": 7851,
  "\u2581characters": 7852,
  "\u2581cinga": 7853,
  "\u2581dear": 7854,
  "\u2581guilty": 7855,
  "\u2581ucinge": 7856,
  "\u2581ukutshintsha": 7857,
  "\u2581wabongoza": 7858,
  "Jonga": 7859,
  "ire": 7860,
  "langazelela": 7861,
  "ngawu": 7862,
  "ngumzekelo": 7863,
  "nokuyenza": 7864,
  "zana": 7865,
  "\u2581Fa": 7866,
  "\u2581Left": 7867,
  "\u2581bokwenene": 7868,
  "\u2581gradually": 7869,
  "\u2581oothixo": 7870,
  "\u2581records": 7871,
  "\u2581siqonde": 7872,
  "\u2581ukubhala": 7873,
  "\u2581wedding": 7874,
  "\u2581yegama": 7875,
  "mgangatho": 7876,
  "thanjiswa": 7877,
  "thathwa": 7878,
  "\u00e1": 7879,
  "\u2581beminyaka": 7880,
  "\u2581ilungiselelo": 7881,
  "\u2581izipho": 7882,
  "\u2581ngomlinganiselo": 7883,
  "\u2581ozi": 7884,
  "\u2581square": 7885,
  "nikiweyo": 7886,
  "\u2581Sovereign": 7887,
  "\u2581ade": 7888,
  "\u2581introduced": 7889,
  "\u2581writings": 7890,
  "gatya": 7891,
  "noxolo": 7892,
  "papashwa": 7893,
  "shwa": 7894,
  "\u25811988": 7895,
  "\u25812001": 7896,
  "\u2581Imeko": 7897,
  "\u2581applications": 7898,
  "\u2581kweeseli": 7899,
  "\u2581ngeenxa": 7900,
  "\u2581ngokunyaniseka": 7901,
  "\u2581qualified": 7902,
  "\u2581wipe": 7903,
  "ngengo": 7904,
  "sanda": 7905,
  "sithandathu": 7906,
  "skrini": 7907,
  "zibulala": 7908,
  "\u258131,": 7909,
  "\u2581Eastern": 7910,
  "\u2581Russell": 7911,
  "\u2581Says": 7912,
  "\u2581[\"": 7913,
  "\u2581abangena": 7914,
  "\u2581afterward": 7915,
  "\u2581anymore": 7916,
  "\u2581besiya": 7917,
  "\u2581depend": 7918,
  "\u2581esetyenziswa": 7919,
  "\u2581grave": 7920,
  "\u2581icawa": 7921,
  "\u2581perish": 7922,
  "\u2581rebellion": 7923,
  "\u2581resulting": 7924,
  "\u2581suggestions": 7925,
  "\u2581widely": 7926,
  "benzi": 7927,
  "bunzulu": 7928,
  "phulaphuli": 7929,
  "shiywa": 7930,
  "valwa": 7931,
  "vile": 7932,
  "\u258127]": 7933,
  "\u2581Italy": 7934,
  "\u2581Kolose": 7935,
  "\u2581Kuthetha": 7936,
  "\u2581corruption": 7937,
  "\u2581credit": 7938,
  "\u2581execute": 7939,
  "\u2581iinqwelo": 7940,
  "\u2581kumalungu": 7941,
  "\u2581kwenkulungwane": 7942,
  "\u2581ngam": 7943,
  "\u2581party": 7944,
  "\u2581siyazi": 7945,
  "\u2581wathumela": 7946,
  "hambisana": 7947,
  "linganisa": 7948,
  "mipu": 7949,
  "thwe": 7950,
  "zifundo": 7951,
  "\u2581Lonke": 7952,
  "\u2581anxious": 7953,
  "\u2581concerns": 7954,
  "\u2581ephathelele": 7955,
  "\u2581ezintliziyweni": 7956,
  "\u2581qhosha": 7957,
  "\u2581saving": 7958,
  "\u2581supplied": 7959,
  "\u2581yeli": 7960,
  "\u2581zale": 7961,
  "\u2581zemali": 7962,
  "chazela": 7963,
  "nokuthenjwa": 7964,
  "rho": 7965,
  "sasazwa": 7966,
  "\u2581Isiqulathi": 7967,
  "\u2581Uqinisekile": 7968,
  "\u2581abundant": 7969,
  "\u2581bukaYesu": 7970,
  "\u2581looks": 7971,
  "\u2581remembered": 7972,
  "\u2581umsebenzisi": 7973,
  "\u2581usindiso": 7974,
  "26]": 7975,
  "bulungisa": 7976,
  "gcini": 7977,
  "mnceda": 7978,
  "ngaboni": 7979,
  "qeqeshe": 7980,
  "soze": 7981,
  "thembekileyo": 7982,
  "\u2581Bill": 7983,
  "\u2581Document": 7984,
  "\u2581Kwezinye": 7985,
  "\u2581Royal": 7986,
  "\u2581ezinjenge": 7987,
  "\u2581grand": 7988,
  "\u2581indefinite": 7989,
  "\u2581inzala": 7990,
  "\u2581ukulungiselela": 7991,
  "\u2581wafika": 7992,
  "\u2581yingozi": 7993,
  "sana": 7994,
  "thatyathwa": 7995,
  "\u2581Baye": 7996,
  "\u2581Ubume": 7997,
  "\u2581gas": 7998,
  "\u2581kwinkulungwane": 7999,
  "\u2581niye": 8000,
  "\u2581numerous": 8001,
  "\u2581occurs": 8002,
  "\u2581wesi": 8003,
  "-3": 8004,
  "fanelekile": 8005,
  "khokele": 8006,
  "kro": 8007,
  "ndaba": 8008,
  "ngcono": 8009,
  "sayo": 8010,
  "\u25811914.": 8011,
  "\u2581Truth": 8012,
  "\u2581abavakalisi": 8013,
  "\u2581degrees": 8014,
  "\u2581lwazi": 8015,
  "\u2581salt": 8016,
  "\u2581sathi": 8017,
  "\u2581selfish": 8018,
  "\u2581thrown": 8019,
  "\u2581win": 8020,
  "\u2581blue": 8021,
  "\u2581spirits": 8022,
  "\u2581strike": 8023,
  "\u2581woBukumkani": 8024,
  "Ge": 8025,
  "khathalele": 8026,
  "layini": 8027,
  "ngaphaya": 8028,
  "nothando": 8029,
  "nxila": 8030,
  "nzulu": 8031,
  "qhe": 8032,
  "toni": 8033,
  "\u2581Iindlela": 8034,
  "\u2581WHAT": 8035,
  "\u2581liphela": 8036,
  "mlambo": 8037,
  "naba": 8038,
  "nke": 8039,
  "nwa": 8040,
  "tshiswa": 8041,
  "\u2581Archive": 8042,
  "\u2581Dan": 8043,
  "\u2581Vi": 8044,
  "\u2581breast": 8045,
  "\u2581dignity": 8046,
  "\u2581figure": 8047,
  "\u2581ikwa": 8048,
  "\u2581judges": 8049,
  "\u2581president": 8050,
  "\u2581routine": 8051,
  "\u2581uhlala": 8052,
  "\u2581utywala": 8053,
  "\u2581wexesha": 8054,
  "ngenelela": 8055,
  "\u2581amapolisa": 8056,
  "\u2581eziku": 8057,
  "\u2581firstborn": 8058,
  "\u2581nanga": 8059,
  "\u2581njengom": 8060,
  "\u2581visiting": 8061,
  "linge": 8062,
  "\u2581Kulo": 8063,
  "\u2581abone": 8064,
  "\u2581crown": 8065,
  "\u2581floor": 8066,
  "\u2581nomfanekiso": 8067,
  "\u2581permissions": 8068,
  "\u2581ukuthumela": 8069,
  "\u2581virtual": 8070,
  "can": 8071,
  "fak": 8072,
  "lindeleke": 8073,
  "nyoka": 8074,
  "qatha": 8075,
  "\u2581Sabbath": 8076,
  "\u2581Samuweli": 8077,
  "\u2581Students": 8078,
  "\u2581acting": 8079,
  "\u2581awathi": 8080,
  "\u2581lwazo": 8081,
  "\u2581nanini": 8082,
  "\u2581nasiphi": 8083,
  "\u2581reproach": 8084,
  "\u2581ubuxoki": 8085,
  "\u2581ukufikelela": 8086,
  "\u2581worldly": 8087,
  "bukho": 8088,
  "great": 8089,
  "meli": 8090,
  "phuphuma": 8091,
  "selwa": 8092,
  "\u2581Development": 8093,
  "\u2581Layer": 8094,
  "\u2581bank": 8095,
  "\u2581bezinto": 8096,
  "\u2581ebonakalayo": 8097,
  "\u2581follows": 8098,
  "\u2581kwafika": 8099,
  "\u2581mfanekiso": 8100,
  "\u2581onjalo": 8101,
  "\u2581siwu": 8102,
  "\u2581spouse": 8103,
  "led": 8104,
  "manyene": 8105,
  "ndibano": 8106,
  "ngqineka": 8107,
  "ship": 8108,
  "thambeka": 8109,
  "\u2581babeya": 8110,
  "\u2581bayazi": 8111,
  "\u2581painful": 8112,
  "\u2581universal": 8113,
  "amanqaku": 8114,
  "neleyo": 8115,
  "ngundoqo": 8116,
  "nqanawa": 8117,
  "row": 8118,
  "sibhozo": 8119,
  "thintele": 8120,
  "\u2581Cultural": 8121,
  "\u2581Flood": 8122,
  "\u2581bothando": 8123,
  "\u2581career": 8124,
  "\u2581kom": 8125,
  "\u2581owner": 8126,
  "\u2581unxulumano": 8127,
  "\u2581uzama": 8128,
  "\u2581yobulungisa": 8129,
  "ists": 8130,
  "mar": 8131,
  "ngako": 8132,
  "ntsha": 8133,
  "sakhiwo": 8134,
  "wonke": 8135,
  "\u2581amatye": 8136,
  "\u2581kwifayili": 8137,
  "\u2581mathathu": 8138,
  "\u2581royal": 8139,
  "\u2581ukuchaza": 8140,
  "\u2581ukufika": 8141,
  "\u2581ukwenziwa": 8142,
  "Su": 8143,
  "fundisi": 8144,
  "ral": 8145,
  "xhoba": 8146,
  "zile": 8147,
  "\u2581=": 8148,
  "\u2581appreciated": 8149,
  "\u2581brief": 8150,
  "\u2581eyayiza": 8151,
  "\u2581invisible": 8152,
  "\u2581involving": 8153,
  "\u2581lion": 8154,
  "\u2581meditate": 8155,
  "\u2581milk": 8156,
  "\u2581nemiphumo": 8157,
  "\u2581reminded": 8158,
  "\u2581replace": 8159,
  "\u2581ukulungisa": 8160,
  "bhedu": 8161,
  "mkhonza": 8162,
  "thala": 8163,
  "wele": 8164,
  "\u2581Ngamana": 8165,
  "\u2581cultural": 8166,
  "\u2581healing": 8167,
  "\u2581wayesele": 8168,
  "ndixelela": 8169,
  "velise": 8170,
  "\u258120]": 8171,
  "\u2581Kuku": 8172,
  "\u2581central": 8173,
  "\u2581ingaba": 8174,
  "\u2581kufuneke": 8175,
  "\u2581ngekamva": 8176,
  "\u2581nokuze": 8177,
  "\u2581pictures": 8178,
  "\u2581spake": 8179,
  "Jesus": 8180,
  "nabantu": 8181,
  "nabantwana": 8182,
  "nom": 8183,
  "port": 8184,
  "ther": 8185,
  "zisela": 8186,
  "\u258126]": 8187,
  "\u258134,": 8188,
  "\u2581Greece": 8189,
  "\u2581Thou": 8190,
  "\u2581isithunywa": 8191,
  "\u2581objective": 8192,
  "\u2581obukhulu": 8193,
  "\u2581quiet": 8194,
  "\u2581sicinga": 8195,
  "\u2581thirty": 8196,
  "NGA": 8197,
  "khompyutha": 8198,
  "khululwe": 8199,
  "kunika": 8200,
  "lelwe": 8201,
  "tsale": 8202,
  "\u2581Fear": 8203,
  "\u2581bume": 8204,
  "\u2581existing": 8205,
  "\u2581luthando": 8206,
  "\u2581lwenu": 8207,
  "\u2581mourning": 8208,
  "\u2581ngabom": 8209,
  "\u2581sources": 8210,
  "\u2581throw": 8211,
  "\u2581ukucima": 8212,
  "\u2581ukwahlula": 8213,
  "\u2581wooden": 8214,
  "\u2581yemfazwe": 8215,
  "neengxaki": 8216,
  "ngakhathali": 8217,
  "thula": 8218,
  "zibhokoxa": 8219,
  "zintlanganisweni": 8220,
  "\u2581Duteronomi": 8221,
  "\u2581imicimbi": 8222,
  "\u2581influenced": 8223,
  "\u2581kolo": 8224,
  "\u2581okukhulu": 8225,
  "\u2581okuninzi": 8226,
  "\u2581umthi": 8227,
  "myeni": 8228,
  "nca": 8229,
  "ngabo": 8230,
  "tter": 8231,
  "\u258119]": 8232,
  "\u2581Ali": 8233,
  "\u2581Assembly": 8234,
  "\u2581Passover": 8235,
  "\u2581Plan": 8236,
  "\u2581aircraft": 8237,
  "\u2581bakaKristu": 8238,
  "\u2581beze": 8239,
  "\u2581craft": 8240,
  "\u2581engines": 8241,
  "\u2581ezayo": 8242,
  "\u2581iingubo": 8243,
  "\u2581nguSathana": 8244,
  "\u2581reliable": 8245,
  "\u2581translate": 8246,
  "\u2581ukufundisisa": 8247,
  "\u2581ummelwane": 8248,
  "cc": 8249,
  "kra": 8250,
  "nyanzeleka": 8251,
  "\u2581Study": 8252,
  "\u2581efunekayo": 8253,
  "\u2581iindidi": 8254,
  "\u2581nomonde": 8255,
  "\u2581soBukumkani": 8256,
  "\u2581ukwa": 8257,
  "fakelwa": 8258,
  "vule": 8259,
  "\u258111]": 8260,
  "\u2581Programme": 8261,
  "\u2581UPetros": 8262,
  "\u2581avela": 8263,
  "\u2581games": 8264,
  "\u2581kinds": 8265,
  "\u2581obligation": 8266,
  "\u2581ukunyamezela": 8267,
  "\u2581uthethe": 8268,
  "ator": 8269,
  "komiti": 8270,
  "ngabonakaliyo": 8271,
  "nyaniseka": 8272,
  "qina": 8273,
  "ww": 8274,
  "xelise": 8275,
  "\u2581Ehlabathini": 8276,
  "\u2581Trash": 8277,
  "\u2581covering": 8278,
  "\u2581difficulty": 8279,
  "\u2581embindini": 8280,
  "\u2581mid": 8281,
  "\u2581ngandlel": 8282,
  "\u2581ngumsindo": 8283,
  "\u2581nkcazelo": 8284,
  "\u2581nobubele": 8285,
  "\u2581sand": 8286,
  "\u2581scene": 8287,
  "\u2581sikaYesu": 8288,
  "\u2581wayenoku": 8289,
  "gt": 8290,
  "maRoma": 8291,
  "\u25811940": 8292,
  "\u2581Nathi": 8293,
  "\u2581Pilate": 8294,
  "\u2581babenga": 8295,
  "\u2581heritage": 8296,
  "\u2581nanto": 8297,
  "\u2581reaction": 8298,
  "\u2581rooms": 8299,
  "\u2581t": 8300,
  "\u2581wongezelela": 8301,
  "miso": 8302,
  "ngoko": 8303,
  "qokelela": 8304,
  "tse": 8305,
  "\u2581Ephraim": 8306,
  "\u2581Eventually": 8307,
  "\u2581Lines": 8308,
  "\u2581Matt": 8309,
  "\u2581bathetha": 8310,
  "\u2581cup": 8311,
  "\u2581interesting": 8312,
  "\u2581khumbula": 8313,
  "\u2581ndifuna": 8314,
  "\u2581ngqondweni": 8315,
  "\u2581okwaku": 8316,
  "Ju": 8317,
  "Who": 8318,
  "kumgangatho": 8319,
  "semhlabeni": 8320,
  "zobupolitika": 8321,
  "\u2581Channel": 8322,
  "\u2581Titus": 8323,
  "\u2581Umlinganiselo": 8324,
  "\u2581closed": 8325,
  "\u2581dealt": 8326,
  "\u2581ebezi": 8327,
  "\u2581lokomoya": 8328,
  "\u2581mildness": 8329,
  "\u2581namanzi": 8330,
  "\u2581permission": 8331,
  "\u2581review": 8332,
  "\u2581wafunda": 8333,
  "\u25c6": 8334,
  "Keep": 8335,
  "namathela": 8336,
  "ngenayo": 8337,
  "sikhumbuza": 8338,
  "\u2581Bag": 8339,
  "\u2581GOD": 8340,
  "\u2581alandelayo": 8341,
  "\u2581asks": 8342,
  "\u2581heartfelt": 8343,
  "\u2581inkosi": 8344,
  "\u2581kwabantwana": 8345,
  "\u2581ngenene": 8346,
  "\u2581soil": 8347,
  "Ndumiso": 8348,
  "banika": 8349,
  "qhina": 8350,
  "thixo": 8351,
  "\u2581brethren": 8352,
  "\u2581creating": 8353,
  "\u2581esivela": 8354,
  "\u2581mane": 8355,
  "\u2581permanently": 8356,
  "\u2581pull": 8357,
  "\u2581sports": 8358,
  "\u2581suicide": 8359,
  "\u2581ukutyhubela": 8360,
  "\u2581wabantu": 8361,
  "thinjwa": 8362,
  "thumele": 8363,
  "zifayili": 8364,
  "\u2581Custom": 8365,
  "\u2581Kweli": 8366,
  "\u2581Men": 8367,
  "\u2581Ndiye": 8368,
  "\u2581Suku": 8369,
  "\u2581Ziya": 8370,
  "\u2581eYurophu": 8371,
  "\u2581ezenzeka": 8372,
  "\u2581ignore": 8373,
  "\u2581ngesisa": 8374,
  "\u2581spite": 8375,
  "\u2581ungu": 8376,
  "\u2581wahamba": 8377,
  "maFilisti": 8378,
  "ntshukumo": 8379,
  "phini": 8380,
  "thandayo": 8381,
  "\u25811930": 8382,
  "\u2581Three": 8383,
  "\u2581Yathi": 8384,
  "\u2581ingqiqo": 8385,
  "\u2581kwindibano": 8386,
  "\u2581merciful": 8387,
  "\u2581owona": 8388,
  "\u2581periods": 8389,
  "\u2581sine": 8390,
  "\u2581track": 8391,
  "disabled": 8392,
  "ring": 8393,
  "yintloko": 8394,
  "\u258129:": 8395,
  "\u2581Sadly": 8396,
  "\u2581Uxwebhu": 8397,
  "\u2581affects": 8398,
  "\u2581parse": 8399,
  "\u2581terrible": 8400,
  "\u2581yamaYuda": 8401,
  "ction": 8402,
  "gqityiwe": 8403,
  "ngamele": 8404,
  "thatyathwe": 8405,
  "wasebenzisa": 8406,
  "yeli": 8407,
  "\u2581Elo": 8408,
  "\u2581Master": 8409,
  "\u2581duty": 8410,
  "\u2581iicawa": 8411,
  "\u2581iwayini": 8412,
  "\u2581kwangoko": 8413,
  "\u2581operations": 8414,
  "\u2581ucwangciso": 8415,
  "\u2581yamaKatolika": 8416,
  "Al": 8417,
  "NT": 8418,
  "TH": 8419,
  "khondo": 8420,
  "koyika": 8421,
  "ngaziwayo": 8422,
  "tyhubela": 8423,
  "\u2581akanaku": 8424,
  "\u2581comment": 8425,
  "\u2581condemned": 8426,
  "\u2581dis": 8427,
  "\u2581idini": 8428,
  "\u2581imikhosi": 8429,
  "\u2581nithe": 8430,
  "\u2581subjection": 8431,
  "\u2581walumkisa": 8432,
  "\u2581yindawo": 8433,
  "\u2581zabanye": 8434,
  "bathathi": 8435,
  "khethwa": 8436,
  "yeni": 8437,
  "\u2581WE": 8438,
  "\u2581abafuna": 8439,
  "\u2581amagosa": 8440,
  "\u2581attitudes": 8441,
  "\u2581decks": 8442,
  "\u2581gathering": 8443,
  "\u2581gear": 8444,
  "\u2581khawu": 8445,
  "\u2581sokukhula": 8446,
  "hlangule": 8447,
  "hlolisise": 8448,
  "menyu": 8449,
  "phelise": 8450,
  "\u2581EZI": 8451,
  "\u2581cwaka": 8452,
  "\u2581healed": 8453,
  "\u2581ivela": 8454,
  "\u2581namabhinqa": 8455,
  "\u2581provincial": 8456,
  "\u2581stage": 8457,
  "\u2581writers": 8458,
  "cebo": 8459,
  "isa": 8460,
  "klasi": 8461,
  "miyalelo": 8462,
  "mlilo": 8463,
  "mqondiso": 8464,
  "ndula": 8465,
  "tz": 8466,
  "\u2581duties": 8467,
  "\u2581elidluleyo": 8468,
  "\u2581eyiyo": 8469,
  "\u2581foolish": 8470,
  "\u2581isazela": 8471,
  "\u2581kufana": 8472,
  "\u2581lwase": 8473,
  "\u2581sili": 8474,
  "\u2581\u25c6": 8475,
  "ME": 8476,
  "bandakanyekileyo": 8477,
  "camngca": 8478,
  "kuphepha": 8479,
  "sikelele": 8480,
  "\u2581Phambi": 8481,
  "\u2581containing": 8482,
  "\u2581kwiseva": 8483,
  "\u2581newly": 8484,
  "\u2581requested": 8485,
  "\u2581star": 8486,
  "\u2581trusted": 8487,
  "\u2581yeZibhalo": 8488,
  "\u2581yiyiphi": 8489,
  "EN": 8490,
  "bheka": 8491,
  "gov": 8492,
  "gqithisileyo": 8493,
  "lali": 8494,
  "moto": 8495,
  "ndele": 8496,
  "qoqosho": 8497,
  "sahluko": 8498,
  "sondeza": 8499,
  "xoka": 8500,
  "\u2581Kucacile": 8501,
  "\u2581companion": 8502,
  "\u2581emine": 8503,
  "\u2581instrument": 8504,
  "\u2581kaPetros": 8505,
  "\u2581pressures": 8506,
  "IC": 8507,
  "Lwandle": 8508,
  "Web": 8509,
  "manyano": 8510,
  "mxelela": 8511,
  "ngakhange": 8512,
  "qula": 8513,
  "ries": 8514,
  "\u258139.": 8515,
  "\u2581Institute": 8516,
  "\u2581approached": 8517,
  "\u2581brochure": 8518,
  "\u2581izithixo": 8519,
  "\u2581noticed": 8520,
  "\u2581obomi": 8521,
  "bopha": 8522,
  "enkulungwane": 8523,
  "fikela": 8524,
  "kr": 8525,
  "layisha": 8526,
  "venkile": 8527,
  "\u2581Caesar": 8528,
  "\u2581Trust": 8529,
  "\u2581Zechariah": 8530,
  "\u2581elingu": 8531,
  "\u2581equipped": 8532,
  "\u2581kwengqondo": 8533,
  "\u2581mothers": 8534,
  "\u2581mthethweni": 8535,
  "\u2581nangenxa": 8536,
  "\u2581ngokuphandle": 8537,
  "\u2581nombulelo": 8538,
  "\u2581observes": 8539,
  "\u2581outcome": 8540,
  "\u2581programs": 8541,
  "\u2581readily": 8542,
  "\u2581row": 8543,
  "Sebe": 8544,
  "khalaza": 8545,
  "nisi": 8546,
  "sukuba": 8547,
  "top": 8548,
  "will": 8549,
  "\u2581(1": 8550,
  "\u2581Armies": 8551,
  "\u2581Ps": 8552,
  "\u2581effectively": 8553,
  "\u2581gained": 8554,
  "\u2581intombazana": 8555,
  "\u2581kwemfazwe": 8556,
  "\u2581leminyaka": 8557,
  "\u2581mzekeliso": 8558,
  "\u2581ndabona": 8559,
  "\u2581speaker": 8560,
  "\u2581ukuphuma": 8561,
  "Aron": 8562,
  "ama": 8563,
  "mazwi": 8564,
  "mbewu": 8565,
  "thunywa": 8566,
  "ziphethe": 8567,
  "\u2581Explain": 8568,
  "\u2581Umdumisi": 8569,
  "\u2581Uxolo": 8570,
  "\u2581Value": 8571,
  "\u2581Welcome": 8572,
  "\u2581discern": 8573,
  "\u2581dying": 8574,
  "\u2581fruits": 8575,
  "\u2581iingelosi": 8576,
  "\u2581intsontelo": 8577,
  "\u2581izazinzulu": 8578,
  "\u2581nemigaqo": 8579,
  "\u2581nomsindo": 8580,
  "\u2581repent": 8581,
  "\u2581repentance": 8582,
  "\u2581zesiHebhere": 8583,
  "\u2581zidla": 8584,
  "board": 8585,
  "fuduka": 8586,
  "mabali": 8587,
  "pela": 8588,
  "xele": 8589,
  "\u2581$": 8590,
  "\u2581Olunye": 8591,
  "\u2581Pi": 8592,
  "\u2581desired": 8593,
  "\u2581exercising": 8594,
  "\u2581idla": 8595,
  "\u2581keel": 8596,
  "\u2581kulu": 8597,
  "\u2581lwenkqubo": 8598,
  "\u2581salo": 8599,
  "Yuropu": 8600,
  "bandakanyeke": 8601,
  "fumanise": 8602,
  "kwakha": 8603,
  "wise": 8604,
  "\u2581Uza": 8605,
  "\u2581automatically": 8606,
  "\u2581garments": 8607,
  "\u2581kananjalo": 8608,
  "\u2581medicine": 8609,
  "\u2581units": 8610,
  "\u2581uqale": 8611,
  "color": 8612,
  "meni": 8613,
  "nentsingiselo": 8614,
  "nkwili": 8615,
  "phose": 8616,
  "with": 8617,
  "\u25812008": 8618,
  "\u2581Early": 8619,
  "\u2581Uthini": 8620,
  "\u2581Zama": 8621,
  "\u2581demonstrated": 8622,
  "\u2581ewonke": 8623,
  "\u2581library": 8624,
  "\u2581nanamhlanje": 8625,
  "\u2581ngenkalipho": 8626,
  "\u2581sailing": 8627,
  "\u2581tradition": 8628,
  "\u2581visits": 8629,
  "bulali": 8630,
  "cawa": 8631,
  "gesi": 8632,
  "xhala": 8633,
  "zalelwa": 8634,
  "\u258164": 8635,
  "\u2581agreement": 8636,
  "\u2581athembekileyo": 8637,
  "\u2581chapters": 8638,
  "\u2581iintswelo": 8639,
  "\u2581ngaxeshanye": 8640,
  "\u2581spirituality": 8641,
  "\u2581sub": 8642,
  "\u2581usa": 8643,
  "Tab": 8644,
  "end": 8645,
  "ngavumi": 8646,
  "qwa": 8647,
  "senzela": 8648,
  "\u2581144": 8649,
  "\u2581awayi": 8650,
  "\u2581benqanawa": 8651,
  "\u2581demand": 8652,
  "\u2581discernment": 8653,
  "\u2581ephakathi": 8654,
  "\u2581ezikhulu": 8655,
  "\u2581ihambo": 8656,
  "\u2581kuzisa": 8657,
  "\u2581ngenyanga": 8658,
  "\u2581province": 8659,
  "\u2581tendency": 8660,
  "DoD": 8661,
  "hlale": 8662,
  "ngakumbi": 8663,
  "qhube": 8664,
  "seni": 8665,
  "siva": 8666,
  "\u2581Benjamin": 8667,
  "\u2581Email": 8668,
  "\u2581Insert": 8669,
  "\u2581arrested": 8670,
  "\u2581kwehlabathi": 8671,
  "\u2581motivated": 8672,
  "\u2581nendlu": 8673,
  "\u2581ngobu": 8674,
  "\u2581noA": 8675,
  "\u2581themba": 8676,
  "hambi": 8677,
  "mpawu": 8678,
  "ngcwaba": 8679,
  "\u2581Abazalwana": 8680,
  "\u2581Daniyeli": 8681,
  "\u2581Kwenzeke": 8682,
  "\u2581Unqulo": 8683,
  "\u2581Year": 8684,
  "\u2581Yini": 8685,
  "\u2581ashamed": 8686,
  "\u2581branches": 8687,
  "\u2581cargoes": 8688,
  "\u2581continually": 8689,
  "\u2581ngesantya": 8690,
  "\u2581symbolic": 8691,
  "\u2581ukulunga": 8692,
  "bukhulu": 8693,
  "fama": 8694,
  "ngcamango": 8695,
  "ngwe": 8696,
  "pre": 8697,
  "\u2581Olo": 8698,
  "\u2581awe": 8699,
  "\u2581fleshly": 8700,
  "\u2581historical": 8701,
  "\u2581iingqondo": 8702,
  "\u2581izilangazelelo": 8703,
  "\u2581nenye": 8704,
  "bulisa": 8705,
  "buyisele": 8706,
  "dliwa": 8707,
  "golide": 8708,
  "nkxaso": 8709,
  "ntlalo": 8710,
  "ris": 8711,
  "sifundo": 8712,
  "\u2581Ubungqina": 8713,
  "\u2581amathambo": 8714,
  "\u2581armed": 8715,
  "\u2581beat": 8716,
  "\u2581delay": 8717,
  "\u2581izulu": 8718,
  "\u2581suggested": 8719,
  "\u2581union": 8720,
  "*": 8721,
  "..............": 8722,
  "Don": 8723,
  "Yerusalem": 8724,
  "bambelela": 8725,
  "lonwabo": 8726,
  "ngingqi": 8727,
  "nyi": 8728,
  "nyula": 8729,
  "rhamncwa": 8730,
  "simo": 8731,
  "siqinisekiso": 8732,
  "\u2581Abafundi": 8733,
  "\u2581Ngenisa": 8734,
  "\u2581balapho": 8735,
  "\u2581begotten": 8736,
  "\u2581emfazweni": 8737,
  "\u2581eziqhelekileyo": 8738,
  "\u2581narrow": 8739,
  "\u2581ngapha": 8740,
  "\u2581reputation": 8741,
  "\u2581welfare": 8742,
  "\u2581wokugqibela": 8743,
  "\u2581yonk": 8744,
  "festile": 8745,
  "gqabaza": 8746,
  "lungiselelwa": 8747,
  "mozulu": 8748,
  "xhathisa": 8749,
  "zahlulela": 8750,
  "\u25811939": 8751,
  "\u2581anikele": 8752,
  "\u2581kwamathambo": 8753,
  "\u2581kwendawo": 8754,
  "\u2581ongendawo": 8755,
  "\u2581stores": 8756,
  "\u2581walu": 8757,
  "\u2581yenze": 8758,
  "hr": 8759,
  "nkcubeko": 8760,
  "ntlungu": 8761,
  "sinyithi": 8762,
  "sithethe": 8763,
  "\u2581Ukufumana": 8764,
  "\u2581kuthe": 8765,
  "\u2581oorhulumente": 8766,
  "\u2581prominent": 8767,
  "\u2581reasoning": 8768,
  "\u2581ukuzuza": 8769,
  "BE": 8770,
  "TY": 8771,
  "emitha": 8772,
  "holo": 8773,
  "mbiza": 8774,
  "van": 8775,
  "\u2581Col": 8776,
  "\u2581Constitution": 8777,
  "\u2581Sp": 8778,
  "\u2581bamandulo": 8779,
  "\u2581changing": 8780,
  "\u2581eager": 8781,
  "\u2581faithfulness": 8782,
  "\u2581isilumkiso": 8783,
  "\u2581literally": 8784,
  "\u2581ngobuchule": 8785,
  "\u2581noise": 8786,
  "\u2581propeller": 8787,
  "\u2581reap": 8788,
  "gxu": 8789,
  "ngamaNgqina": 8790,
  "ngubo": 8791,
  "vunyelwa": 8792,
  "\u2581Dad": 8793,
  "\u2581basezulwini": 8794,
  "\u2581damaged": 8795,
  "\u2581habit": 8796,
  "\u2581neyo": 8797,
  "\u2581njongo": 8798,
  "\u2581previously": 8799,
  "\u2581victory": 8800,
  "Nebhukadenetsare": 8801,
  "berg": 8802,
  "bhombu": 8803,
  "qhayisa": 8804,
  "yiphi": 8805,
  "\u2581Besides": 8806,
  "\u2581William": 8807,
  "\u2581ayina": 8808,
  "\u2581depressed": 8809,
  "\u2581disabled": 8810,
  "\u2581focused": 8811,
  "\u2581lom": 8812,
  "\u2581motor": 8813,
  "\u2581ngokwee": 8814,
  "\u2581ngoluntu": 8815,
  "\u2581pair": 8816,
  "\u2581seconds": 8817,
  "\u2581switch": 8818,
  "\u2581ukuthobeka": 8819,
  "\u2581usebenzise": 8820,
  "Nyana": 8821,
  "iv": 8822,
  "mon": 8823,
  "ndlala": 8824,
  "nxa": 8825,
  "tshati": 8826,
  "\u2581Nehemiah": 8827,
  "\u2581afune": 8828,
  "\u2581akunaku": 8829,
  "\u2581ezingcwele": 8830,
  "\u2581imvume": 8831,
  "\u2581possessions": 8832,
  "\u2581wash": 8833,
  "IM": 8834,
  "bazi": 8835,
  "coming": 8836,
  "ec": 8837,
  "zingisa": 8838,
  "\u2581ISI": 8839,
  "\u2581Know": 8840,
  "\u2581Samaria": 8841,
  "\u2581assurance": 8842,
  "\u2581bhinqa": 8843,
  "\u2581ebuhlungu": 8844,
  "\u2581header": 8845,
  "\u2581kaNowa": 8846,
  "\u2581limits": 8847,
  "\u2581okhethiweyo": 8848,
  "\u2581pick": 8849,
  "\u2581scholar": 8850,
  "200": 8851,
  "CD": 8852,
  "buncwane": 8853,
  "cape": 8854,
  "fakelwe": 8855,
  "ities": 8856,
  "midlalo": 8857,
  "njini": 8858,
  "nyikima": 8859,
  "sabelo": 8860,
  "\u2581Encyclop\u00e6dia": 8861,
  "\u2581comforting": 8862,
  "\u2581historian": 8863,
  "\u2581iingozi": 8864,
  "\u2581intlangano": 8865,
  "\u2581nolwazi": 8866,
  "\u2581plague": 8867,
  "\u2581schedule": 8868,
  "\u2581shed": 8869,
  "\u2581zebandla": 8870,
  ".1": 8871,
  "dume": 8872,
  "fundwa": 8873,
  "miswe": 8874,
  "mmandla": 8875,
  "ngcakaza": 8876,
  "ski": 8877,
  "work": 8878,
  "\u2581Chaza": 8879,
  "\u2581Death": 8880,
  "\u2581Manasseh": 8881,
  "\u2581Sele": 8882,
  "\u2581associate": 8883,
  "\u2581captivity": 8884,
  "\u2581ecaweni": 8885,
  "\u2581kwimbali": 8886,
  "\u2581primarily": 8887,
  "\u2581rely": 8888,
  "\u2581sazi": 8889,
  "\u2581schools": 8890,
  "\u2581uB": 8891,
  "\u2581yakutshanje": 8892,
  "bra": 8893,
  "kri": 8894,
  "nza": 8895,
  "sizathu": 8896,
  "\u2581Files": 8897,
  "\u2581Heb": 8898,
  "\u2581Oo": 8899,
  "\u2581kwamandla": 8900,
  "\u2581lubonisa": 8901,
  "\u2581ongena": 8902,
  "ndini": 8903,
  "vuyisayo": 8904,
  "zenzo": 8905,
  "\u258161": 8906,
  "\u2581Ihlabathi": 8907,
  "\u2581Scripture": 8908,
  "\u2581bafunda": 8909,
  "\u2581islands": 8910,
  "\u2581mbono": 8911,
  "\u2581pro": 8912,
  "\u2581silu": 8913,
  "\u2581ukulandela": 8914,
  "fileyo": 8915,
  "\u2581asebenza": 8916,
  "\u2581efanele": 8917,
  "\u2581enkonzweni": 8918,
  "\u2581executed": 8919,
  "\u2581inclined": 8920,
  "\u2581isidlo": 8921,
  "\u2581likhulu": 8922,
  "\u2581neemeko": 8923,
  "\u2581nguwe": 8924,
  "\u2581professor": 8925,
  "\u2581ruling": 8926,
  "\u2581songs": 8927,
  "\u2581ukuli": 8928,
  "\u2581umanyano": 8929,
  "\u2581wanika": 8930,
  "\u2581watching": 8931,
  "Ziyon": 8932,
  "landelwa": 8933,
  "mibala": 8934,
  "negunya": 8935,
  "phakama": 8936,
  "phawule": 8937,
  "ven": 8938,
  "\u2581Intsapho": 8939,
  "\u2581ca": 8940,
  "\u2581dock": 8941,
  "\u2581eAfrika": 8942,
  "\u2581esikhundleni": 8943,
  "\u2581ezibangela": 8944,
  "\u2581imimiselo": 8945,
  "\u2581intense": 8946,
  "\u2581motion": 8947,
  "\u2581preserve": 8948,
  "\u2581ukukhusela": 8949,
  "\u2581west": 8950,
  "\u2581wobomi": 8951,
  "ZO": 8952,
  "amkeli": 8953,
  "ecawa": 8954,
  "linganayo": 8955,
  "sikhokelo": 8956,
  "vume": 8957,
  "vuna": 8958,
  "\u2581Grand": 8959,
  "\u2581Him": 8960,
  "\u2581Review": 8961,
[...]
